{
  "version": "1.0",
  "truncation": null,
  "padding": null,
  "added_tokens": [
    {
      "id": 0,
      "content": "[PAD]",
      "single_word": false,
      "lstrip": false,
      "rstrip": false,
      "normalized": false,
      "special": true
    },
    {
      "id": 1,
      "content": "[UNK]",
      "single_word": false,
      "lstrip": false,
      "rstrip": false,
      "normalized": false,
      "special": true
    },
    {
      "id": 2,
      "content": "[BOS]",
      "single_word": false,
      "lstrip": false,
      "rstrip": false,
      "normalized": false,
      "special": true
    },
    {
      "id": 3,
      "content": "[EOS]",
      "single_word": false,
      "lstrip": false,
      "rstrip": false,
      "normalized": false,
      "special": true
    },
    {
      "id": 4,
      "content": "<|endoftext|>",
      "single_word": false,
      "lstrip": false,
      "rstrip": false,
      "normalized": false,
      "special": true
    }
  ],
  "normalizer": null,
  "pre_tokenizer": {
    "type": "Whitespace"
  },
  "post_processor": null,
  "decoder": null,
  "model": {
    "type": "BPE",
    "dropout": null,
    "unk_token": "[UNK]",
    "continuing_subword_prefix": null,
    "end_of_word_suffix": null,
    "fuse_unk": false,
    "byte_fallback": false,
    "ignore_merges": false,
    "vocab": {
      "[PAD]": 0,
      "[UNK]": 1,
      "[BOS]": 2,
      "[EOS]": 3,
      "<|endoftext|>": 4,
      "!": 5,
      "\"": 6,
      "#": 7,
      "$": 8,
      "%": 9,
      "&": 10,
      "'": 11,
      "(": 12,
      ")": 13,
      "*": 14,
      "+": 15,
      ",": 16,
      "-": 17,
      ".": 18,
      "/": 19,
      "0": 20,
      "1": 21,
      "2": 22,
      "3": 23,
      "4": 24,
      "5": 25,
      "6": 26,
      "7": 27,
      "8": 28,
      "9": 29,
      ":": 30,
      ";": 31,
      "<": 32,
      "=": 33,
      ">": 34,
      "?": 35,
      "@": 36,
      "A": 37,
      "B": 38,
      "C": 39,
      "D": 40,
      "E": 41,
      "F": 42,
      "G": 43,
      "H": 44,
      "I": 45,
      "J": 46,
      "K": 47,
      "L": 48,
      "M": 49,
      "N": 50,
      "O": 51,
      "P": 52,
      "Q": 53,
      "R": 54,
      "S": 55,
      "T": 56,
      "U": 57,
      "V": 58,
      "W": 59,
      "X": 60,
      "Y": 61,
      "Z": 62,
      "[": 63,
      "\\": 64,
      "]": 65,
      "^": 66,
      "_": 67,
      "`": 68,
      "a": 69,
      "b": 70,
      "c": 71,
      "d": 72,
      "e": 73,
      "f": 74,
      "g": 75,
      "h": 76,
      "i": 77,
      "j": 78,
      "k": 79,
      "l": 80,
      "m": 81,
      "n": 82,
      "o": 83,
      "p": 84,
      "q": 85,
      "r": 86,
      "s": 87,
      "t": 88,
      "u": 89,
      "v": 90,
      "w": 91,
      "x": 92,
      "y": 93,
      "z": 94,
      "{": 95,
      "|": 96,
      "}": 97,
      "~": 98,
      "£": 99,
      "¥": 100,
      "§": 101,
      "«": 102,
      "®": 103,
      "°": 104,
      "±": 105,
      "·": 106,
      "»": 107,
      "À": 108,
      "Á": 109,
      "Å": 110,
      "Æ": 111,
      "Ç": 112,
      "È": 113,
      "É": 114,
      "Í": 115,
      "Î": 116,
      "Ð": 117,
      "Ó": 118,
      "Ö": 119,
      "×": 120,
      "Ø": 121,
      "Ú": 122,
      "Ü": 123,
      "Þ": 124,
      "ß": 125,
      "à": 126,
      "á": 127,
      "â": 128,
      "ã": 129,
      "ä": 130,
      "å": 131,
      "æ": 132,
      "ç": 133,
      "è": 134,
      "é": 135,
      "ê": 136,
      "ë": 137,
      "ì": 138,
      "í": 139,
      "î": 140,
      "ï": 141,
      "ð": 142,
      "ñ": 143,
      "ò": 144,
      "ó": 145,
      "ô": 146,
      "õ": 147,
      "ö": 148,
      "÷": 149,
      "ø": 150,
      "ù": 151,
      "ú": 152,
      "û": 153,
      "ü": 154,
      "ý": 155,
      "Ā": 156,
      "ā": 157,
      "ă": 158,
      "ą": 159,
      "ć": 160,
      "č": 161,
      "Đ": 162,
      "đ": 163,
      "Ē": 164,
      "ē": 165,
      "ė": 166,
      "ę": 167,
      "ě": 168,
      "ğ": 169,
      "ī": 170,
      "İ": 171,
      "ı": 172,
      "Ł": 173,
      "ł": 174,
      "ń": 175,
      "ŋ": 176,
      "Ō": 177,
      "ō": 178,
      "ő": 179,
      "œ": 180,
      "ř": 181,
      "Ś": 182,
      "ś": 183,
      "ş": 184,
      "Š": 185,
      "š": 186,
      "ū": 187,
      "ź": 188,
      "Ż": 189,
      "ż": 190,
      "Ž": 191,
      "ž": 192,
      "ư": 193,
      "ǎ": 194,
      "ǐ": 195,
      "Ǒ": 196,
      "ǒ": 197,
      "ǔ": 198,
      "Ș": 199,
      "ș": 200,
      "ț": 201,
      "ɐ": 202,
      "ɑ": 203,
      "ɒ": 204,
      "ɓ": 205,
      "ɔ": 206,
      "ɕ": 207,
      "ə": 208,
      "ɛ": 209,
      "ɜ": 210,
      "ɟ": 211,
      "ɡ": 212,
      "ɣ": 213,
      "ɥ": 214,
      "ɦ": 215,
      "ɨ": 216,
      "ɪ": 217,
      "ɫ": 218,
      "ɭ": 219,
      "ɯ": 220,
      "ɲ": 221,
      "ɳ": 222,
      "ɹ": 223,
      "ɻ": 224,
      "ɽ": 225,
      "ɾ": 226,
      "ʁ": 227,
      "ʂ": 228,
      "ʃ": 229,
      "ʈ": 230,
      "ʊ": 231,
      "ʋ": 232,
      "ʌ": 233,
      "ʏ": 234,
      "ʐ": 235,
      "ʑ": 236,
      "ʒ": 237,
      "ʔ": 238,
      "ʕ": 239,
      "ʝ": 240,
      "ʻ": 241,
      "ʼ": 242,
      "ʾ": 243,
      "ʿ": 244,
      "ˈ": 245,
      "ˌ": 246,
      "ː": 247,
      "˧": 248,
      "˨": 249,
      "˩": 250,
      "̀": 251,
      "́": 252,
      "̂": 253,
      "̃": 254,
      "̌": 255,
      "̍": 256,
      "̞": 257,
      "̟": 258,
      "̥": 259,
      "̩": 260,
      "̪": 261,
      "̯": 262,
      "̱": 263,
      "͡": 264,
      "Α": 265,
      "Β": 266,
      "Γ": 267,
      "Δ": 268,
      "Ζ": 269,
      "Η": 270,
      "Θ": 271,
      "Κ": 272,
      "Λ": 273,
      "Μ": 274,
      "Ν": 275,
      "Π": 276,
      "Ρ": 277,
      "Φ": 278,
      "Ω": 279,
      "ά": 280,
      "έ": 281,
      "ή": 282,
      "ί": 283,
      "α": 284,
      "β": 285,
      "γ": 286,
      "δ": 287,
      "ε": 288,
      "ζ": 289,
      "η": 290,
      "θ": 291,
      "ι": 292,
      "κ": 293,
      "λ": 294,
      "μ": 295,
      "ν": 296,
      "ξ": 297,
      "ο": 298,
      "π": 299,
      "ρ": 300,
      "ς": 301,
      "σ": 302,
      "τ": 303,
      "υ": 304,
      "φ": 305,
      "χ": 306,
      "ω": 307,
      "ό": 308,
      "ύ": 309,
      "ώ": 310,
      "Ђ": 311,
      "А": 312,
      "Б": 313,
      "В": 314,
      "Г": 315,
      "Д": 316,
      "З": 317,
      "И": 318,
      "К": 319,
      "Л": 320,
      "М": 321,
      "Н": 322,
      "О": 323,
      "П": 324,
      "Р": 325,
      "С": 326,
      "Т": 327,
      "У": 328,
      "Ч": 329,
      "Ш": 330,
      "Ю": 331,
      "Я": 332,
      "а": 333,
      "б": 334,
      "в": 335,
      "г": 336,
      "д": 337,
      "е": 338,
      "ж": 339,
      "з": 340,
      "и": 341,
      "й": 342,
      "к": 343,
      "л": 344,
      "м": 345,
      "н": 346,
      "о": 347,
      "п": 348,
      "р": 349,
      "с": 350,
      "т": 351,
      "у": 352,
      "х": 353,
      "ц": 354,
      "ч": 355,
      "ш": 356,
      "ъ": 357,
      "ы": 358,
      "ь": 359,
      "я": 360,
      "ё": 361,
      "і": 362,
      "ј": 363,
      "љ": 364,
      "ћ": 365,
      "א": 366,
      "ב": 367,
      "ד": 368,
      "ה": 369,
      "ו": 370,
      "ז": 371,
      "ט": 372,
      "י": 373,
      "ל": 374,
      "מ": 375,
      "ן": 376,
      "נ": 377,
      "ס": 378,
      "ע": 379,
      "ץ": 380,
      "ק": 381,
      "ר": 382,
      "ש": 383,
      "ת": 384,
      "װ": 385,
      "أ": 386,
      "إ": 387,
      "ا": 388,
      "ب": 389,
      "ة": 390,
      "ت": 391,
      "ث": 392,
      "ج": 393,
      "ح": 394,
      "خ": 395,
      "د": 396,
      "ر": 397,
      "ز": 398,
      "س": 399,
      "ش": 400,
      "ص": 401,
      "ض": 402,
      "ط": 403,
      "ظ": 404,
      "ع": 405,
      "غ": 406,
      "ف": 407,
      "ق": 408,
      "ل": 409,
      "م": 410,
      "ن": 411,
      "ه": 412,
      "و": 413,
      "ى": 414,
      "ي": 415,
      "َ": 416,
      "ُ": 417,
      "ِ": 418,
      "ّ": 419,
      "ْ": 420,
      "ٕ": 421,
      "ٱ": 422,
      "ڕ": 423,
      "ژ": 424,
      "ک": 425,
      "گ": 426,
      "ہ": 427,
      "ی": 428,
      "ە": 429,
      "ं": 430,
      "ः": 431,
      "अ": 432,
      "ई": 433,
      "क": 434,
      "ख": 435,
      "ग": 436,
      "ङ": 437,
      "च": 438,
      "ज": 439,
      "ञ": 440,
      "ट": 441,
      "ड": 442,
      "ण": 443,
      "त": 444,
      "थ": 445,
      "द": 446,
      "न": 447,
      "प": 448,
      "फ": 449,
      "ब": 450,
      "भ": 451,
      "म": 452,
      "य": 453,
      "र": 454,
      "ल": 455,
      "ळ": 456,
      "व": 457,
      "श": 458,
      "ष": 459,
      "स": 460,
      "ह": 461,
      "़": 462,
      "ा": 463,
      "ि": 464,
      "ी": 465,
      "ु": 466,
      "ृ": 467,
      "े": 468,
      "ै": 469,
      "ो": 470,
      "ौ": 471,
      "्": 472,
      "এ": 473,
      "ক": 474,
      "গ": 475,
      "জ": 476,
      "ঞ": 477,
      "ঠ": 478,
      "ড": 479,
      "ণ": 480,
      "ত": 481,
      "দ": 482,
      "ন": 483,
      "প": 484,
      "ব": 485,
      "ম": 486,
      "র": 487,
      "ল": 488,
      "শ": 489,
      "ষ": 490,
      "স": 491,
      "হ": 492,
      "া": 493,
      "ি": 494,
      "ু": 495,
      "ে": 496,
      "্": 497,
      "ਈ": 498,
      "ਕ": 499,
      "ਜ": 500,
      "ਨ": 501,
      "ਭ": 502,
      "ਮ": 503,
      "ਰ": 504,
      "ਵ": 505,
      "ਸ": 506,
      "਼": 507,
      "ਾ": 508,
      "ੀ": 509,
      "ੋ": 510,
      "ં": 511,
      "ઈ": 512,
      "ક": 513,
      "ઢ": 514,
      "દ": 515,
      "બ": 516,
      "મ": 517,
      "ળ": 518,
      "ા": 519,
      "ી": 520,
      "ુ": 521,
      "ો": 522,
      "ଂ": 523,
      "କ": 524,
      "ଦ": 525,
      "ନ": 526,
      "ମ": 527,
      "ର": 528,
      "ଶ": 529,
      "ସ": 530,
      "ହ": 531,
      "ା": 532,
      "ି": 533,
      "ୀ": 534,
      "ୁ": 535,
      "୍": 536,
      "ୟ": 537,
      "த": 538,
      "ம": 539,
      "ழ": 540,
      "ி": 541,
      "ொ": 542,
      "்": 543,
      "ം": 544,
      "മ": 545,
      "യ": 546,
      "ല": 547,
      "ള": 548,
      "ാ": 549,
      "ග": 550,
      "ණ": 551,
      "ද": 552,
      "න": 553,
      "ය": 554,
      "ර": 555,
      "ල": 556,
      "්": 557,
      "ැ": 558,
      "ි": 559,
      "ก": 560,
      "ง": 561,
      "ฉ": 562,
      "ช": 563,
      "ฎ": 564,
      "ถ": 565,
      "น": 566,
      "พ": 567,
      "ม": 568,
      "ร": 569,
      "ล": 570,
      "ว": 571,
      "ศ": 572,
      "อ": 573,
      "ะ": 574,
      "ั": 575,
      "า": 576,
      "ิ": 577,
      "ี": 578,
      "ุ": 579,
      "เ": 580,
      "่": 581,
      "་": 582,
      "ག": 583,
      "ང": 584,
      "ཇ": 585,
      "ད": 586,
      "བ": 587,
      "མ": 588,
      "འ": 589,
      "ས": 590,
      "ོ": 591,
      "ྒ": 592,
      "ླ": 593,
      "င": 594,
      "စ": 595,
      "ရ": 596,
      "ဝ": 597,
      "အ": 598,
      "ိ": 599,
      "ီ": 600,
      "ဲ": 601,
      "ለ": 602,
      "ላ": 603,
      "ማ": 604,
      "ሥ": 605,
      "ሴ": 606,
      "ቀ": 607,
      "ኀ": 608,
      "ዊ": 609,
      "ይ": 610,
      "ዳ": 611,
      "ḍ": 612,
      "ḗ": 613,
      "ḥ": 614,
      "Ḩ": 615,
      "ḷ": 616,
      "ḻ": 617,
      "ṃ": 618,
      "ṅ": 619,
      "ṇ": 620,
      "ṛ": 621,
      "ṣ": 622,
      "Ṭ": 623,
      "ṭ": 624,
      "ẓ": 625,
      "ạ": 626,
      "ả": 627,
      "ấ": 628,
      "ậ": 629,
      "ắ": 630,
      "ẽ": 631,
      "ế": 632,
      "ề": 633,
      "ễ": 634,
      "ệ": 635,
      "ổ": 636,
      "ộ": 637,
      "ớ": 638,
      "ụ": 639,
      "ỳ": 640,
      "Ἀ": 641,
      "Ἄ": 642,
      "Ἑ": 643,
      "Ἥ": 644,
      "ὀ": 645,
      "ὸ": 646,
      "ᾍ": 647,
      "ᾶ": 648,
      "ῆ": 649,
      "ῖ": 650,
      "ῶ": 651,
      "​": 652,
      "‌": 653,
      "‍": 654,
      "‎": 655,
      "‐": 656,
      "‒": 657,
      "–": 658,
      "—": 659,
      "‘": 660,
      "’": 661,
      "“": 662,
      "”": 663,
      "•": 664,
      "′": 665,
      "‿": 666,
      "⁄": 667,
      "⁠": 668,
      "€": 669,
      "₹": 670,
      "₿": 671,
      "→": 672,
      "∈": 673,
      "∑": 674,
      "−": 675,
      "√": 676,
      "∞": 677,
      "∶": 678,
      "≈": 679,
      "≤": 680,
      "⋅": 681,
      "☉": 682,
      "♈": 683,
      "♊": 684,
      "♭": 685,
      "♯": 686,
      "《": 687,
      "》": 688,
      "お": 689,
      "き": 690,
      "し": 691,
      "す": 692,
      "た": 693,
      "と": 694,
      "ね": 695,
      "の": 696,
      "び": 697,
      "ゃ": 698,
      "ゆ": 699,
      "り": 700,
      "わ": 701,
      "ァ": 702,
      "ア": 703,
      "ィ": 704,
      "イ": 705,
      "ゥ": 706,
      "ウ": 707,
      "カ": 708,
      "キ": 709,
      "ギ": 710,
      "ク": 711,
      "グ": 712,
      "ゲ": 713,
      "サ": 714,
      "シ": 715,
      "ジ": 716,
      "ス": 717,
      "ズ": 718,
      "ソ": 719,
      "タ": 720,
      "テ": 721,
      "デ": 722,
      "ト": 723,
      "ド": 724,
      "ナ": 725,
      "ニ": 726,
      "バ": 727,
      "パ": 728,
      "ビ": 729,
      "フ": 730,
      "プ": 731,
      "ホ": 732,
      "マ": 733,
      "ミ": 734,
      "ム": 735,
      "メ": 736,
      "ュ": 737,
      "ユ": 738,
      "ョ": 739,
      "リ": 740,
      "ル": 741,
      "レ": 742,
      "ロ": 743,
      "ワ": 744,
      "ン": 745,
      "・": 746,
      "ー": 747,
      "三": 748,
      "不": 749,
      "东": 750,
      "丝": 751,
      "严": 752,
      "中": 753,
      "举": 754,
      "久": 755,
      "义": 756,
      "之": 757,
      "乱": 758,
      "事": 759,
      "二": 760,
      "五": 761,
      "井": 762,
      "京": 763,
      "人": 764,
      "他": 765,
      "代": 766,
      "任": 767,
      "优": 768,
      "会": 769,
      "体": 770,
      "何": 771,
      "俊": 772,
      "俳": 773,
      "倭": 774,
      "光": 775,
      "克": 776,
      "全": 777,
      "共": 778,
      "军": 779,
      "刘": 780,
      "利": 781,
      "力": 782,
      "功": 783,
      "包": 784,
      "化": 785,
      "北": 786,
      "千": 787,
      "原": 788,
      "取": 789,
      "古": 790,
      "句": 791,
      "叫": 792,
      "台": 793,
      "司": 794,
      "合": 795,
      "吉": 796,
      "味": 797,
      "和": 798,
      "品": 799,
      "善": 800,
      "嘉": 801,
      "嘎": 802,
      "噌": 803,
      "嚴": 804,
      "园": 805,
      "国": 806,
      "國": 807,
      "在": 808,
      "地": 809,
      "場": 810,
      "塩": 811,
      "外": 812,
      "夢": 813,
      "大": 814,
      "天": 815,
      "夫": 816,
      "央": 817,
      "失": 818,
      "奶": 819,
      "始": 820,
      "子": 821,
      "学": 822,
      "學": 823,
      "家": 824,
      "寿": 825,
      "居": 826,
      "山": 827,
      "岗": 828,
      "岳": 829,
      "岷": 830,
      "峰": 831,
      "嶺": 832,
      "川": 833,
      "巨": 834,
      "帆": 835,
      "师": 836,
      "帝": 837,
      "師": 838,
      "平": 839,
      "年": 840,
      "幸": 841,
      "庁": 842,
      "広": 843,
      "府": 844,
      "廣": 845,
      "式": 846,
      "强": 847,
      "归": 848,
      "录": 849,
      "往": 850,
      "後": 851,
      "御": 852,
      "徽": 853,
      "志": 854,
      "恭": 855,
      "愛": 856,
      "戀": 857,
      "戦": 858,
      "戰": 859,
      "戸": 860,
      "握": 861,
      "撃": 862,
      "敏": 863,
      "敬": 864,
      "文": 865,
      "日": 866,
      "昌": 867,
      "是": 868,
      "書": 869,
      "曼": 870,
      "曾": 871,
      "朗": 872,
      "本": 873,
      "杉": 874,
      "李": 875,
      "来": 876,
      "東": 877,
      "杷": 878,
      "枇": 879,
      "柒": 880,
      "柔": 881,
      "柯": 882,
      "柴": 883,
      "栄": 884,
      "校": 885,
      "株": 886,
      "梯": 887,
      "極": 888,
      "橋": 889,
      "機": 890,
      "歌": 891,
      "步": 892,
      "武": 893,
      "毛": 894,
      "水": 895,
      "江": 896,
      "油": 897,
      "治": 898,
      "法": 899,
      "波": 900,
      "流": 901,
      "浙": 902,
      "浦": 903,
      "淡": 904,
      "港": 905,
      "湘": 906,
      "滾": 907,
      "漫": 908,
      "瀧": 909,
      "火": 910,
      "無": 911,
      "照": 912,
      "熊": 913,
      "片": 914,
      "犬": 915,
      "獄": 916,
      "王": 917,
      "玛": 918,
      "珍": 919,
      "珠": 920,
      "現": 921,
      "球": 922,
      "瓣": 923,
      "生": 924,
      "用": 925,
      "电": 926,
      "男": 927,
      "畝": 928,
      "療": 929,
      "白": 930,
      "皇": 931,
      "盲": 932,
      "看": 933,
      "着": 934,
      "短": 935,
      "社": 936,
      "神": 937,
      "祥": 938,
      "秦": 939,
      "種": 940,
      "穆": 941,
      "第": 942,
      "粤": 943,
      "精": 944,
      "紅": 945,
      "紋": 946,
      "納": 947,
      "結": 948,
      "絲": 949,
      "纂": 950,
      "红": 951,
      "纪": 952,
      "罰": 953,
      "羅": 954,
      "者": 955,
      "耦": 956,
      "膜": 957,
      "自": 958,
      "舉": 959,
      "苏": 960,
      "苓": 961,
      "茶": 962,
      "荆": 963,
      "荒": 964,
      "菜": 965,
      "落": 966,
      "蒂": 967,
      "蒲": 968,
      "藏": 969,
      "虎": 970,
      "蛤": 971,
      "行": 972,
      "術": 973,
      "褐": 974,
      "西": 975,
      "要": 976,
      "視": 977,
      "视": 978,
      "角": 979,
      "警": 980,
      "議": 981,
      "豆": 982,
      "路": 983,
      "進": 984,
      "道": 985,
      "郎": 986,
      "都": 987,
      "酢": 988,
      "醤": 989,
      "釜": 990,
      "錫": 991,
      "鍋": 992,
      "锅": 993,
      "镇": 994,
      "長": 995,
      "长": 996,
      "間": 997,
      "闇": 998,
      "闘": 999,
      "闽": 1000,
      "阿": 1001,
      "际": 1002,
      "陆": 1003,
      "隊": 1004,
      "雪": 1005,
      "電": 1006,
      "霸": 1007,
      "響": 1008,
      "顺": 1009,
      "食": 1010,
      "飯": 1011,
      "餘": 1012,
      "香": 1013,
      "馬": 1014,
      "魂": 1015,
      "魄": 1016,
      "魔": 1017,
      "鮓": 1018,
      "鮨": 1019,
      "鲁": 1020,
      "鸡": 1021,
      "黒": 1022,
      "鼻": 1023,
      "ꜜ": 1024,
      "가": 1025,
      "간": 1026,
      "걀": 1027,
      "거": 1028,
      "계": 1029,
      "국": 1030,
      "귀": 1031,
      "꼬": 1032,
      "날": 1033,
      "달": 1034,
      "닭": 1035,
      "란": 1036,
      "령": 1037,
      "말": 1038,
      "부": 1039,
      "빨": 1040,
      "산": 1041,
      "선": 1042,
      "수": 1043,
      "스": 1044,
      "아": 1045,
      "와": 1046,
      "용": 1047,
      "원": 1048,
      "유": 1049,
      "은": 1050,
      "이": 1051,
      "조": 1052,
      "족": 1053,
      "좋": 1054,
      "지": 1055,
      "치": 1056,
      "칠": 1057,
      "트": 1058,
      "한": 1059,
      "황": 1060,
      "︎": 1061,
      "﻿": 1062,
      "�": 1063,
      "𑀁": 1064,
      "𑀧": 1065,
      "𑀭": 1066,
      "𑀲": 1067,
      "𑀳": 1068,
      "𑀺": 1069,
      "𑀼": 1070,
      "th": 1071,
      "in": 1072,
      "an": 1073,
      "er": 1074,
      "on": 1075,
      "the": 1076,
      "en": 1077,
      "re": 1078,
      "at": 1079,
      "is": 1080,
      "or": 1081,
      "es": 1082,
      "al": 1083,
      "of": 1084,
      "ed": 1085,
      "ar": 1086,
      "and": 1087,
      "as": 1088,
      "ing": 1089,
      "ou": 1090,
      "it": 1091,
      "to": 1092,
      "ic": 1093,
      "ion": 1094,
      "le": 1095,
      "st": 1096,
      "om": 1097,
      "te": 1098,
      "he": 1099,
      "ent": 1100,
      "ac": 1101,
      "il": 1102,
      "am": 1103,
      "se": 1104,
      "ro": 1105,
      "ist": 1106,
      "ve": 1107,
      "ch": 1108,
      "de": 1109,
      "be": 1110,
      "ly": 1111,
      "ol": 1112,
      "xt": 1113,
      "for": 1114,
      "ant": 1115,
      "end": 1116,
      "ss": 1117,
      "ow": 1118,
      "text": 1119,
      "are": 1120,
      "ser": 1121,
      "im": 1122,
      "ter": 1123,
      "ad": 1124,
      "wh": 1125,
      "ig": 1126,
      "ation": 1127,
      "ur": 1128,
      "The": 1129,
      "ay": 1130,
      "ct": 1131,
      "ver": 1132,
      "ce": 1133,
      "ir": 1134,
      "et": 1135,
      "un": 1136,
      "ag": 1137,
      "ith": 1138,
      "Ass": 1139,
      "ul": 1140,
      "istant": 1141,
      "User": 1142,
      "Assistant": 1143,
      "<|": 1144,
      "|>": 1145,
      "oftext": 1146,
      "endoftext": 1147,
      "id": 1148,
      "con": 1149,
      "mo": 1150,
      "us": 1151,
      "pl": 1152,
      "com": 1153,
      "ab": 1154,
      "with": 1155,
      "ap": 1156,
      "op": 1157,
      "was": 1158,
      "all": 1159,
      "ot": 1160,
      "tr": 1161,
      "est": 1162,
      "el": 1163,
      "if": 1164,
      "fr": 1165,
      "that": 1166,
      "um": 1167,
      "ers": 1168,
      "by": 1169,
      "oun": 1170,
      "20": 1171,
      "pro": 1172,
      "19": 1173,
      "ut": 1174,
      "ain": 1175,
      "pe": 1176,
      "our": 1177,
      "ies": 1178,
      "ther": 1179,
      "ate": 1180,
      "ke": 1181,
      "In": 1182,
      "su": 1183,
      "ive": 1184,
      "ld": 1185,
      "Wh": 1186,
      "ne": 1187,
      "igh": 1188,
      "res": 1189,
      "ill": 1190,
      "cl": 1191,
      "iv": 1192,
      "ity": 1193,
      "oc": 1194,
      "em": 1195,
      "od": 1196,
      "from": 1197,
      "sh": 1198,
      "art": 1199,
      "qu": 1200,
      "ich": 1201,
      "ere": 1202,
      "ess": 1203,
      "ex": 1204,
      "per": 1205,
      "ha": 1206,
      "act": 1207,
      "ia": 1208,
      "als": 1209,
      "one": 1210,
      "man": 1211,
      "ard": 1212,
      "out": 1213,
      "wor": 1214,
      "can": 1215,
      "pr": 1216,
      "ment": 1217,
      "his": 1218,
      "ally": 1219,
      "po": 1220,
      "ort": 1221,
      "co": 1222,
      "you": 1223,
      "ge": 1224,
      "str": 1225,
      "ma": 1226,
      "ear": 1227,
      "ip": 1228,
      "which": 1229,
      "ber": 1230,
      "ated": 1231,
      "ass": 1232,
      "we": 1233,
      "ame": 1234,
      "Con": 1235,
      "gr": 1236,
      "du": 1237,
      "ish": 1238,
      "ian": 1239,
      "ome": 1240,
      "ach": 1241,
      "ight": 1242,
      "me": 1243,
      "li": 1244,
      "ast": 1245,
      "ine": 1246,
      "fe": 1247,
      "comp": 1248,
      "ud": 1249,
      "lo": 1250,
      "ound": 1251,
      "age": 1252,
      "ial": 1253,
      "ure": 1254,
      "ide": 1255,
      "have": 1256,
      "iz": 1257,
      "mer": 1258,
      "do": 1259,
      "has": 1260,
      "sp": 1261,
      "ong": 1262,
      "gh": 1263,
      "low": 1264,
      "It": 1265,
      "fer": 1266,
      "av": 1267,
      "ack": 1268,
      "bo": 1269,
      "its": 1270,
      "own": 1271,
      "not": 1272,
      "ions": 1273,
      "ire": 1274,
      "der": 1275,
      "00": 1276,
      "go": 1277,
      "up": 1278,
      "Ch": 1279,
      "ould": 1280,
      "What": 1281,
      "tim": 1282,
      "St": 1283,
      "ak": 1284,
      "ary": 1285,
      "cre": 1286,
      "ie": 1287,
      "ll": 1288,
      "Context": 1289,
      "also": 1290,
      "ical": 1291,
      "ous": 1292,
      "ib": 1293,
      "ough": 1294,
      "use": 1295,
      "pre": 1296,
      "cr": 1297,
      "ence": 1298,
      "af": 1299,
      "Th": 1300,
      "irst": 1301,
      "form": 1302,
      "dr": 1303,
      "ep": 1304,
      "fo": 1305,
      "vel": 1306,
      "play": 1307,
      "ates": 1308,
      "Un": 1309,
      "bl": 1310,
      "most": 1311,
      "their": 1312,
      "ang": 1313,
      "other": 1314,
      "ind": 1315,
      "ater": 1316,
      "ice": 1317,
      "ult": 1318,
      "ans": 1319,
      "first": 1320,
      "aw": 1321,
      "ks": 1322,
      "ph": 1323,
      "your": 1324,
      "lect": 1325,
      "this": 1326,
      "able": 1327,
      "but": 1328,
      "br": 1329,
      "land": 1330,
      "),": 1331,
      "ev": 1332,
      "part": 1333,
      "ue": 1334,
      "201": 1335,
      "ty": 1336,
      "ace": 1337,
      "tw": 1338,
      "cor": 1339,
      "mon": 1340,
      "some": 1341,
      "year": 1342,
      "over": 1343,
      "ite": 1344,
      "ell": 1345,
      "og": 1346,
      "time": 1347,
      "incl": 1348,
      "more": 1349,
      "kn": 1350,
      "were": 1351,
      "king": 1352,
      "any": 1353,
      "ree": 1354,
      "int": 1355,
      "ition": 1356,
      "He": 1357,
      "ile": 1358,
      "ign": 1359,
      "port": 1360,
      "they": 1361,
      "cont": 1362,
      "ust": 1363,
      "who": 1364,
      "ations": 1365,
      "ca": 1366,
      "spe": 1367,
      "many": 1368,
      "An": 1369,
      "gen": 1370,
      "amp": 1371,
      "ory": 1372,
      "ited": 1373,
      "sy": 1374,
      "cess": 1375,
      "ance": 1376,
      "par": 1377,
      "iver": 1378,
      "ase": 1379,
      "gre": 1380,
      "coun": 1381,
      "os": 1382,
      "old": 1383,
      "ens": 1384,
      "tern": 1385,
      "cons": 1386,
      "200": 1387,
      "Fr": 1388,
      "ents": 1389,
      "used": 1390,
      "ick": 1391,
      "ok": 1392,
      "18": 1393,
      "bet": 1394,
      "cent": 1395,
      "ball": 1396,
      "dis": 1397,
      "ors": 1398,
      "Amer": 1399,
      "ased": 1400,
      "Americ": 1401,
      "les": 1402,
      "ational": 1403,
      "cur": 1404,
      "red": 1405,
      "fl": 1406,
      "such": 1407,
      "lar": 1408,
      "ra": 1409,
      "way": 1410,
      "about": 1411,
      "when": 1412,
      "ten": 1413,
      "ning": 1414,
      "dif": 1415,
      "day": 1416,
      "des": 1417,
      "ever": 1418,
      "ular": 1419,
      "ces": 1420,
      "ied": 1421,
      "fin": 1422,
      "ts": 1423,
      "ta": 1424,
      "ci": 1425,
      "will": 1426,
      "rit": 1427,
      "ark": 1428,
      "them": 1429,
      "col": 1430,
      "ob": 1431,
      "into": 1432,
      ").": 1433,
      "Ar": 1434,
      "ction": 1435,
      "ef": 1436,
      "like": 1437,
      "Ne": 1438,
      "two": 1439,
      "pop": 1440,
      "her": 1441,
      "ople": 1442,
      "so": 1443,
      "world": 1444,
      "no": 1445,
      "high": 1446,
      "ced": 1447,
      "att": 1448,
      "fol": 1449,
      "serv": 1450,
      "uring": 1451,
      "work": 1452,
      "au": 1453,
      "ific": 1454,
      "ry": 1455,
      "been": 1456,
      "than": 1457,
      "produ": 1458,
      "pt": 1459,
      "eng": 1460,
      "car": 1461,
      "elect": 1462,
      "get": 1463,
      "row": 1464,
      "ings": 1465,
      "off": 1466,
      "team": 1467,
      "ics": 1468,
      "ities": 1469,
      "had": 1470,
      "inter": 1471,
      "bu": 1472,
      "tain": 1473,
      "Ind": 1474,
      "known": 1475,
      "reg": 1476,
      "ck": 1477,
      "pos": 1478,
      "United": 1479,
      "ict": 1480,
      "ful": 1481,
      "people": 1482,
      "follow": 1483,
      "Al": 1484,
      "loc": 1485,
      "differ": 1486,
      "where": 1487,
      "arch": 1488,
      "min": 1489,
      "ese": 1490,
      "would": 1491,
      "ating": 1492,
      "stem": 1493,
      "ose": 1494,
      "ason": 1495,
      "main": 1496,
      "ween": 1497,
      "This": 1498,
      "199": 1499,
      "my": 1500,
      "rough": 1501,
      "pres": 1502,
      "vis": 1503,
      "includ": 1504,
      "nam": 1505,
      "En": 1506,
      "ins": 1507,
      "oy": 1508,
      "ari": 1509,
      "ubl": 1510,
      "ata": 1511,
      "cord": 1512,
      "ily": 1513,
      "How": 1514,
      "let": 1515,
      "between": 1516,
      "list": 1517,
      "after": 1518,
      "prov": 1519,
      "gan": 1520,
      "there": 1521,
      "cho": 1522,
      "countr": 1523,
      "what": 1524,
      "ath": 1525,
      "ub": 1526,
      "air": 1527,
      "fore": 1528,
      "bor": 1529,
      "each": 1530,
      "la": 1531,
      "olog": 1532,
      "ild": 1533,
      "cond": 1534,
      "spec": 1535,
      "American": 1536,
      "ters": 1537,
      "202": 1538,
      "num": 1539,
      "je": 1540,
      "ise": 1541,
      "well": 1542,
      "ric": 1543,
      "hel": 1544,
      "new": 1545,
      "ms": 1546,
      "through": 1547,
      "these": 1548,
      "ative": 1549,
      "De": 1550,
      "system": 1551,
      "io": 1552,
      "cer": 1553,
      "cap": 1554,
      "inv": 1555,
      "comm": 1556,
      "Le": 1557,
      "how": 1558,
      "States": 1559,
      "ident": 1560,
      "water": 1561,
      "As": 1562,
      "best": 1563,
      "found": 1564,
      "long": 1565,
      "years": 1566,
      "ran": 1567,
      "illion": 1568,
      "may": 1569,
      "ix": 1570,
      "med": 1571,
      "ship": 1572,
      "ys": 1573,
      "only": 1574,
      "under": 1575,
      "fam": 1576,
      "del": 1577,
      "cy": 1578,
      "call": 1579,
      "New": 1580,
      "ug": 1581,
      "velop": 1582,
      "ail": 1583,
      "ore": 1584,
      "198": 1585,
      "ude": 1586,
      "top": 1587,
      "pers": 1588,
      "cause": 1589,
      "gener": 1590,
      "add": 1591,
      "tem": 1592,
      "ivers": 1593,
      "sk": 1594,
      "then": 1595,
      "No": 1596,
      "ject": 1597,
      "set": 1598,
      "Se": 1599,
      "10": 1600,
      "lif": 1601,
      "ual": 1602,
      "For": 1603,
      "ider": 1604,
      "ood": 1605,
      "ple": 1606,
      "bre": 1607,
      "char": 1608,
      "Wor": 1609,
      "very": 1610,
      "iel": 1611,
      "gest": 1612,
      "different": 1613,
      "need": 1614,
      "ify": 1615,
      "iss": 1616,
      "aph": 1617,
      "ext": 1618,
      "rel": 1619,
      "ince": 1620,
      "sub": 1621,
      "during": 1622,
      "ons": 1623,
      "ward": 1624,
      "cle": 1625,
      "outh": 1626,
      "pol": 1627,
      "develop": 1628,
      "mem": 1629,
      "back": 1630,
      "data": 1631,
      "urn": 1632,
      "ting": 1633,
      "ically": 1634,
      "che": 1635,
      "following": 1636,
      "ures": 1637,
      "iven": 1638,
      "led": 1639,
      "made": 1640,
      "mus": 1641,
      "ost": 1642,
      "sm": 1643,
      "come": 1644,
      "Re": 1645,
      "ower": 1646,
      "ash": 1647,
      "ond": 1648,
      "being": 1649,
      "run": 1650,
      "vi": 1651,
      "ton": 1652,
      "There": 1653,
      "ural": 1654,
      "Mar": 1655,
      "ually": 1656,
      "sel": 1657,
      "ames": 1658,
      "sing": 1659,
      "ven": 1660,
      "fect": 1661,
      "three": 1662,
      "publ": 1663,
      "start": 1664,
      "gl": 1665,
      "requ": 1666,
      "came": 1667,
      "sur": 1668,
      "while": 1669,
      "ann": 1670,
      "typ": 1671,
      "based": 1672,
      "fil": 1673,
      "Jo": 1674,
      "angu": 1675,
      "pass": 1676,
      "Nor": 1677,
      "game": 1678,
      "atch": 1679,
      "won": 1680,
      "vari": 1681,
      "ments": 1682,
      "dist": 1683,
      "state": 1684,
      "season": 1685,
      "hist": 1686,
      "fun": 1687,
      "point": 1688,
      "arr": 1689,
      "sport": 1690,
      "World": 1691,
      "mov": 1692,
      "ized": 1693,
      "make": 1694,
      "Pr": 1695,
      "ature": 1696,
      "hum": 1697,
      "alth": 1698,
      "gu": 1699,
      "ouse": 1700,
      "including": 1701,
      "ible": 1702,
      "oup": 1703,
      "17": 1704,
      "197": 1705,
      "langu": 1706,
      "called": 1707,
      "ility": 1708,
      "Com": 1709,
      "Gr": 1710,
      "peri": 1711,
      "lead": 1712,
      "chool": 1713,
      "ize": 1714,
      "common": 1715,
      "gy": 1716,
      "sim": 1717,
      "number": 1718,
      "help": 1719,
      "tra": 1720,
      "cu": 1721,
      "include": 1722,
      "Sp": 1723,
      "stru": 1724,
      "popular": 1725,
      "ask": 1726,
      "person": 1727,
      "light": 1728,
      "ield": 1729,
      "good": 1730,
      "You": 1731,
      "Cl": 1732,
      "196": 1733,
      "Be": 1734,
      "nor": 1735,
      "she": 1736,
      "anc": 1737,
      "should": 1738,
      "Is": 1739,
      "ants": 1740,
      "trans": 1741,
      "uro": 1742,
      "train": 1743,
      "could": 1744,
      "consider": 1745,
      "ional": 1746,
      "city": 1747,
      "stand": 1748,
      "net": 1749,
      "fact": 1750,
      "process": 1751,
      "ices": 1752,
      "four": 1753,
      "ank": 1754,
      "dep": 1755,
      "15": 1756,
      "now": 1757,
      "ars": 1758,
      "ink": 1759,
      "often": 1760,
      "around": 1761,
      "app": 1762,
      "ism": 1763,
      "stud": 1764,
      "ret": 1765,
      "ier": 1766,
      "second": 1767,
      "both": 1768,
      "ished": 1769,
      "chn": 1770,
      "oci": 1771,
      "life": 1772,
      "less": 1773,
      "record": 1774,
      "son": 1775,
      "win": 1776,
      "Ph": 1777,
      "curr": 1778,
      "mark": 1779,
      "great": 1780,
      "val": 1781,
      "000": 1782,
      "ury": 1783,
      "On": 1784,
      "ner": 1785,
      "sol": 1786,
      "side": 1787,
      "name": 1788,
      "oth": 1789,
      "key": 1790,
      "sup": 1791,
      "They": 1792,
      "power": 1793,
      "mil": 1794,
      "Sh": 1795,
      "If": 1796,
      "ina": 1797,
      "because": 1798,
      "ger": 1799,
      "jor": 1800,
      "refer": 1801,
      "small": 1802,
      "ener": 1803,
      "igin": 1804,
      "unt": 1805,
      "large": 1806,
      "using": 1807,
      "rele": 1808,
      "ross": 1809,
      "down": 1810,
      "ah": 1811,
      "writ": 1812,
      "million": 1813,
      "ages": 1814,
      "12": 1815,
      "sign": 1816,
      "ines": 1817,
      "ake": 1818,
      "Euro": 1819,
      "ways": 1820,
      "dire": 1821,
      "model": 1822,
      "dom": 1823,
      "press": 1824,
      "read": 1825,
      "before": 1826,
      "country": 1827,
      "ital": 1828,
      "vers": 1829,
      "ists": 1830,
      "company": 1831,
      "ird": 1832,
      "16": 1833,
      "Br": 1834,
      "ution": 1835,
      "incre": 1836,
      "care": 1837,
      "Au": 1838,
      "US": 1839,
      "became": 1840,
      "India": 1841,
      "again": 1842,
      "techn": 1843,
      "fic": 1844,
      "Col": 1845,
      "Pl": 1846,
      "war": 1847,
      "series": 1848,
      "Pro": 1849,
      "ium": 1850,
      "Ger": 1851,
      "ale": 1852,
      "ague": 1853,
      "30": 1854,
      "class": 1855,
      "Can": 1856,
      "field": 1857,
      "ste": 1858,
      "plan": 1859,
      "ted": 1860,
      "ather": 1861,
      "food": 1862,
      "him": 1863,
      "iversity": 1864,
      "Europe": 1865,
      "allow": 1866,
      "bus": 1867,
      "ble": 1868,
      "depend": 1869,
      "oper": 1870,
      "reat": 1871,
      "born": 1872,
      "At": 1873,
      "sc": 1874,
      "language": 1875,
      "hand": 1876,
      "ired": 1877,
      "later": 1878,
      "origin": 1879,
      "bi": 1880,
      "ime": 1881,
      "ets": 1882,
      "tom": 1883,
      "wide": 1884,
      "uch": 1885,
      "ology": 1886,
      "por": 1887,
      "Joh": 1888,
      "did": 1889,
      "place": 1890,
      "does": 1891,
      "hy": 1892,
      "\",": 1893,
      "pur": 1894,
      "cted": 1895,
      "head": 1896,
      "chan": 1897,
      "iving": 1898,
      "present": 1899,
      "contin": 1900,
      "largest": 1901,
      "organ": 1902,
      "otball": 1903,
      "ali": 1904,
      "group": 1905,
      "major": 1906,
      "home": 1907,
      "ives": 1908,
      "met": 1909,
      "mber": 1910,
      "self": 1911,
      "area": 1912,
      "ety": 1913,
      "same": 1914,
      "lear": 1915,
      "dec": 1916,
      "suc": 1917,
      "uc": 1918,
      "\".": 1919,
      "gram": 1920,
      "design": 1921,
      "She": 1922,
      "ulation": 1923,
      "every": 1924,
      "import": 1925,
      "Who": 1926,
      "Tr": 1927,
      "vent": 1928,
      "ron": 1929,
      "conom": 1930,
      "sever": 1931,
      "195": 1932,
      "music": 1933,
      "Ad": 1934,
      "ided": 1935,
      "since": 1936,
      "leg": 1937,
      "ock": 1938,
      "even": 1939,
      "sto": 1940,
      "partic": 1941,
      "early": 1942,
      "mar": 1943,
      "prof": 1944,
      "take": 1945,
      "enn": 1946,
      "word": 1947,
      "ampion": 1948,
      "build": 1949,
      "result": 1950,
      "ived": 1951,
      "charac": 1952,
      "John": 1953,
      "see": 1954,
      "board": 1955,
      "sa": 1956,
      "ats": 1957,
      "mp": 1958,
      "contro": 1959,
      "family": 1960,
      "War": 1961,
      "thing": 1962,
      "line": 1963,
      "iness": 1964,
      "put": 1965,
      "though": 1966,
      "When": 1967,
      "iew": 1968,
      "flu": 1969,
      "eas": 1970,
      "grow": 1971,
      "right": 1972,
      "level": 1973,
      "Bl": 1974,
      "South": 1975,
      "Car": 1976,
      "tour": 1977,
      "gover": 1978,
      "bers": 1979,
      "bod": 1980,
      "played": 1981,
      "ai": 1982,
      "uary": 1983,
      "until": 1984,
      "ently": 1985,
      "14": 1986,
      "mult": 1987,
      "ample": 1988,
      "electric": 1989,
      "just": 1990,
      "cept": 1991,
      "soc": 1992,
      "ica": 1993,
      "ared": 1994,
      "last": 1995,
      "194": 1996,
      "public": 1997,
      "open": 1998,
      "Indian": 1999,
      "Sw": 2000,
      "ley": 2001,
      "dog": 2002,
      "Af": 2003,
      "National": 2004,
      "az": 2005,
      "school": 2006,
      "exp": 2007,
      "tell": 2008,
      "Ro": 2009,
      "ord": 2010,
      "road": 2011,
      "ples": 2012,
      "ability": 2013,
      "Which": 2014,
      "commun": 2015,
      "sum": 2016,
      "law": 2017,
      "stit": 2018,
      "term": 2019,
      "century": 2020,
      "equ": 2021,
      "cour": 2022,
      "five": 2023,
      "important": 2024,
      "ft": 2025,
      "show": 2026,
      "ended": 2027,
      "effect": 2028,
      "appe": 2029,
      "struct": 2030,
      "econom": 2031,
      "tit": 2032,
      "prom": 2033,
      "Austr": 2034,
      "countries": 2035,
      "13": 2036,
      "nat": 2037,
      "plac": 2038,
      "view": 2039,
      "sci": 2040,
      "real": 2041,
      "tal": 2042,
      "much": 2043,
      "human": 2044,
      "success": 2045,
      "anim": 2046,
      "several": 2047,
      "Brit": 2048,
      "ving": 2049,
      "ither": 2050,
      "appro": 2051,
      "product": 2052,
      "tak": 2053,
      "une": 2054,
      "di": 2055,
      "history": 2056,
      "ban": 2057,
      "cult": 2058,
      "0s": 2059,
      "polit": 2060,
      "que": 2061,
      "film": 2062,
      "resp": 2063,
      "example": 2064,
      "graph": 2065,
      "sof": 2066,
      "North": 2067,
      "ends": 2068,
      "ress": 2069,
      "ument": 2070,
      "11": 2071,
      "All": 2072,
      "kes": 2073,
      "descr": 2074,
      "bal": 2075,
      "II": 2076,
      "formation": 2077,
      "University": 2078,
      "apan": 2079,
      "rece": 2080,
      "Mo": 2081,
      "activ": 2082,
      "govern": 2083,
      "King": 2084,
      "whe": 2085,
      "agr": 2086,
      "expl": 2087,
      "Co": 2088,
      "Japan": 2089,
      "ately": 2090,
      "cut": 2091,
      "sal": 2092,
      "ides": 2093,
      "few": 2094,
      "lands": 2095,
      "ench": 2096,
      "move": 2097,
      "However": 2098,
      "Ge": 2099,
      "itions": 2100,
      "thern": 2101,
      "San": 2102,
      "ele": 2103,
      "gin": 2104,
      "ling": 2105,
      "ves": 2106,
      "atter": 2107,
      "order": 2108,
      "ones": 2109,
      "contr": 2110,
      "ris": 2111,
      "bum": 2112,
      "house": 2113,
      "program": 2114,
      "pect": 2115,
      "considered": 2116,
      "search": 2117,
      "sour": 2118,
      "Man": 2119,
      "indu": 2120,
      "Engl": 2121,
      "vir": 2122,
      "English": 2123,
      "ization": 2124,
      "ness": 2125,
      "ved": 2126,
      "cover": 2127,
      "aster": 2128,
      "These": 2129,
      "adv": 2130,
      "due": 2131,
      "compet": 2132,
      "know": 2133,
      "rest": 2134,
      "Why": 2135,
      "Pe": 2136,
      "lex": 2137,
      "tle": 2138,
      "near": 2139,
      "Or": 2140,
      "sw": 2141,
      "uses": 2142,
      "trad": 2143,
      "atic": 2144,
      "America": 2145,
      "ampionship": 2146,
      "vol": 2147,
      "fri": 2148,
      "eder": 2149,
      "against": 2150,
      "find": 2151,
      "ctor": 2152,
      "short": 2153,
      "action": 2154,
      "ases": 2155,
      "And": 2156,
      "player": 2157,
      "prote": 2158,
      "2022": 2159,
      "body": 2160,
      "fish": 2161,
      "ute": 2162,
      "Some": 2163,
      "lit": 2164,
      "wood": 2165,
      "ountain": 2166,
      "want": 2167,
      "ences": 2168,
      "support": 2169,
      "Given": 2170,
      "ternational": 2171,
      "50": 2172,
      "itch": 2173,
      "named": 2174,
      "Bo": 2175,
      "ork": 2176,
      "itive": 2177,
      "poss": 2178,
      "offic": 2179,
      "teams": 2180,
      "We": 2181,
      "plic": 2182,
      "market": 2183,
      "non": 2184,
      "Ex": 2185,
      "jo": 2186,
      "sun": 2187,
      "ement": 2188,
      "After": 2189,
      "event": 2190,
      "band": 2191,
      "mag": 2192,
      "tow": 2193,
      "omet": 2194,
      "served": 2195,
      "ik": 2196,
      "profess": 2197,
      "ified": 2198,
      "business": 2199,
      ".\"": 2200,
      "engine": 2201,
      "games": 2202,
      "ient": 2203,
      "pen": 2204,
      "ency": 2205,
      "football": 2206,
      "those": 2207,
      "Ear": 2208,
      "hard": 2209,
      "rop": 2210,
      "phys": 2211,
      "Afr": 2212,
      "players": 2213,
      "tion": 2214,
      "single": 2215,
      "To": 2216,
      "hol": 2217,
      "itional": 2218,
      "Sep": 2219,
      "health": 2220,
      "usually": 2221,
      "ave": 2222,
      "either": 2223,
      "pot": 2224,
      "ene": 2225,
      "album": 2226,
      "song": 2227,
      "ense": 2228,
      "ral": 2229,
      "book": 2230,
      "Har": 2231,
      "ality": 2232,
      "within": 2233,
      "string": 2234,
      "located": 2235,
      "Par": 2236,
      "population": 2237,
      "Austral": 2238,
      "League": 2239,
      "chil": 2240,
      "former": 2241,
      "cuss": 2242,
      "Ma": 2243,
      "fru": 2244,
      "member": 2245,
      "Coun": 2246,
      "ior": 2247,
      "ards": 2248,
      "mi": 2249,
      "nia": 2250,
      "ches": 2251,
      "und": 2252,
      "ivid": 2253,
      "Fin": 2254,
      "ploy": 2255,
      "One": 2256,
      "York": 2257,
      "reach": 2258,
      "agraph": 2259,
      "released": 2260,
      "bul": 2261,
      "ming": 2262,
      "paragraph": 2263,
      "typically": 2264,
      "lim": 2265,
      "vide": 2266,
      "aly": 2267,
      "current": 2268,
      "must": 2269,
      "ref": 2270,
      "ories": 2271,
      "Gu": 2272,
      "sequ": 2273,
      "change": 2274,
      "wee": 2275,
      "dren": 2276,
      "ract": 2277,
      "enter": 2278,
      "prim": 2279,
      "gar": 2280,
      "hold": 2281,
      "energy": 2282,
      "flow": 2283,
      "oman": 2284,
      "May": 2285,
      "become": 2286,
      "ney": 2287,
      "invest": 2288,
      "British": 2289,
      "attle": 2290,
      "ho": 2291,
      "along": 2292,
      "2021": 2293,
      "weight": 2294,
      "Eng": 2295,
      "national": 2296,
      "Class": 2297,
      "aut": 2298,
      "City": 2299,
      "sure": 2300,
      "From": 2301,
      "Give": 2302,
      "Dr": 2303,
      "Go": 2304,
      "ially": 2305,
      "Cali": 2306,
      "Ste": 2307,
      "ots": 2308,
      "times": 2309,
      "ream": 2310,
      "began": 2311,
      "training": 2312,
      "miss": 2313,
      "making": 2314,
      "live": 2315,
      "days": 2316,
      "ator": 2317,
      "visit": 2318,
      "Mon": 2319,
      "ination": 2320,
      "Califor": 2321,
      "remain": 2322,
      "ada": 2323,
      "interest": 2324,
      "period": 2325,
      "species": 2326,
      "ious": 2327,
      "round": 2328,
      "inc": 2329,
      "ues": 2330,
      "ised": 2331,
      "try": 2332,
      "natural": 2333,
      "experi": 2334,
      "abl": 2335,
      "test": 2336,
      "keep": 2337,
      "president": 2338,
      "oney": 2339,
      "100": 2340,
      "California": 2341,
      "Su": 2342,
      "ined": 2343,
      "cell": 2344,
      "uter": 2345,
      "men": 2346,
      "def": 2347,
      "ount": 2348,
      "ensive": 2349,
      "aim": 2350,
      "given": 2351,
      "iam": 2352,
      "character": 2353,
      "His": 2354,
      "bur": 2355,
      "ler": 2356,
      "moder": 2357,
      "2020": 2358,
      "Apr": 2359,
      "pract": 2360,
      "wards": 2361,
      "cal": 2362,
      "defin": 2363,
      "manag": 2364,
      "month": 2365,
      "specific": 2366,
      "ential": 2367,
      "Jan": 2368,
      "third": 2369,
      "another": 2370,
      "ush": 2371,
      "iple": 2372,
      "government": 2373,
      "Aug": 2374,
      "chang": 2375,
      "imp": 2376,
      "without": 2377,
      "compan": 2378,
      "gress": 2379,
      "social": 2380,
      "turn": 2381,
      "ision": 2382,
      "193": 2383,
      "comb": 2384,
      "created": 2385,
      "children": 2386,
      "April": 2387,
      "type": 2388,
      "states": 2389,
      "information": 2390,
      "imes": 2391,
      "fee": 2392,
      "travel": 2393,
      "March": 2394,
      "instr": 2395,
      "ays": 2396,
      "match": 2397,
      "ilar": 2398,
      "Her": 2399,
      "ains": 2400,
      "Geor": 2401,
      "things": 2402,
      "redu": 2403,
      "itar": 2404,
      "fall": 2405,
      "capital": 2406,
      "control": 2407,
      "omen": 2408,
      "ago": 2409,
      "August": 2410,
      "Ser": 2411,
      "ade": 2412,
      "don": 2413,
      "conne": 2414,
      "25": 2415,
      "Oc": 2416,
      "eg": 2417,
      "hal": 2418,
      "still": 2419,
      "individ": 2420,
      "famous": 2421,
      "formed": 2422,
      "Fe": 2423,
      "fac": 2424,
      "gn": 2425,
      "sty": 2426,
      "French": 2427,
      "dent": 2428,
      "ivil": 2429,
      "object": 2430,
      "So": 2431,
      "km": 2432,
      "ilt": 2433,
      "room": 2434,
      "career": 2435,
      "24": 2436,
      "West": 2437,
      "face": 2438,
      "Sy": 2439,
      "idd": 2440,
      "rain": 2441,
      "wal": 2442,
      "xim": 2443,
      "space": 2444,
      "Ju": 2445,
      "reason": 2446,
      "olf": 2447,
      "ival": 2448,
      "Ap": 2449,
      "far": 2450,
      "oks": 2451,
      "ben": 2452,
      "Bar": 2453,
      "sit": 2454,
      "development": 2455,
      "ana": 2456,
      "club": 2457,
      "types": 2458,
      "hip": 2459,
      "rad": 2460,
      "wind": 2461,
      "estern": 2462,
      "ama": 2463,
      "position": 2464,
      "tember": 2465,
      "mit": 2466,
      "across": 2467,
      "among": 2468,
      "mic": 2469,
      "thod": 2470,
      "ern": 2471,
      "icket": 2472,
      "glo": 2473,
      "rock": 2474,
      "posed": 2475,
      "September": 2476,
      "establ": 2477,
      "west": 2478,
      "ff": 2479,
      "joy": 2480,
      "ering": 2481,
      "bro": 2482,
      "local": 2483,
      "having": 2484,
      "aver": 2485,
      "better": 2486,
      "clear": 2487,
      "six": 2488,
      "held": 2489,
      "2019": 2490,
      "final": 2491,
      "June": 2492,
      "bit": 2493,
      "bas": 2494,
      "ground": 2495,
      "invol": 2496,
      "thor": 2497,
      "various": 2498,
      "cording": 2499,
      "industr": 2500,
      "aud": 2501,
      "cus": 2502,
      "break": 2503,
      "vo": 2504,
      "feel": 2505,
      "systems": 2506,
      "modern": 2507,
      "Rep": 2508,
      "ged": 2509,
      "While": 2510,
      "aur": 2511,
      "cost": 2512,
      "Earth": 2513,
      "cussion": 2514,
      "influ": 2515,
      "atures": 2516,
      "town": 2517,
      "Mc": 2518,
      "Park": 2519,
      "Ru": 2520,
      "hour": 2521,
      "base": 2522,
      "foc": 2523,
      "ister": 2524,
      "force": 2525,
      "proper": 2526,
      "22": 2527,
      "ibut": 2528,
      "developed": 2529,
      "free": 2530,
      "distr": 2531,
      "tober": 2532,
      "direct": 2533,
      "Will": 2534,
      "har": 2535,
      "hi": 2536,
      "crit": 2537,
      "Ident": 2538,
      "range": 2539,
      "lege": 2540,
      "cogn": 2541,
      "highest": 2542,
      "div": 2543,
      "clim": 2544,
      "Red": 2545,
      "ids": 2546,
      "2018": 2547,
      "total": 2548,
      "members": 2549,
      "October": 2550,
      "sl": 2551,
      "research": 2552,
      "beli": 2553,
      "ump": 2554,
      "Cup": 2555,
      "proble": 2556,
      "quar": 2557,
      "Do": 2558,
      "Sun": 2559,
      "tware": 2560,
      "BA": 2561,
      "nu": 2562,
      "offee": 2563,
      "employ": 2564,
      "China": 2565,
      "tail": 2566,
      "NA": 2567,
      "cir": 2568,
      "ires": 2569,
      "might": 2570,
      "sell": 2571,
      "dev": 2572,
      "Identify": 2573,
      "sports": 2574,
      "mach": 2575,
      "ato": 2576,
      "issu": 2577,
      "whether": 2578,
      "lin": 2579,
      "mal": 2580,
      "ending": 2581,
      "percussion": 2582,
      "German": 2583,
      "happ": 2584,
      "uel": 2585,
      "separ": 2586,
      "works": 2587,
      "benef": 2588,
      "Te": 2589,
      "tele": 2590,
      "ched": 2591,
      "ateg": 2592,
      "vision": 2593,
      "passage": 2594,
      "similar": 2595,
      "ape": 2596,
      "bert": 2597,
      "ublic": 2598,
      "Dece": 2599,
      "founded": 2600,
      "big": 2601,
      "ane": 2602,
      "avail": 2603,
      "associ": 2604,
      "Classify": 2605,
      "quest": 2606,
      "ians": 2607,
      "camp": 2608,
      "late": 2609,
      "December": 2610,
      "produced": 2611,
      "asket": 2612,
      "icy": 2613,
      "next": 2614,
      "France": 2615,
      "method": 2616,
      "signific": 2617,
      "describ": 2618,
      "July": 2619,
      "21": 2620,
      "Wal": 2621,
      "pain": 2622,
      "mean": 2623,
      "billion": 2624,
      "general": 2625,
      "rite": 2626,
      "ades": 2627,
      "built": 2628,
      "lay": 2629,
      "night": 2630,
      "istr": 2631,
      "particular": 2632,
      "Cor": 2633,
      "fast": 2634,
      "lor": 2635,
      "special": 2636,
      "Ac": 2637,
      "Me": 2638,
      "active": 2639,
      "meas": 2640,
      "attack": 2641,
      "lot": 2642,
      "represent": 2643,
      "computer": 2644,
      "ength": 2645,
      "others": 2646,
      "Cr": 2647,
      "bar": 2648,
      "sco": 2649,
      "left": 2650,
      "professional": 2651,
      "cat": 2652,
      "pat": 2653,
      "tre": 2654,
      "ables": 2655,
      "intro": 2656,
      "Str": 2657,
      "With": 2658,
      "ems": 2659,
      "region": 2660,
      "dam": 2661,
      "ped": 2662,
      "tas": 2663,
      "learning": 2664,
      "BC": 2665,
      "generally": 2666,
      "companies": 2667,
      "Min": 2668,
      "squ": 2669,
      "European": 2670,
      "ri": 2671,
      "strong": 2672,
      "comes": 2673,
      "return": 2674,
      "England": 2675,
      "AI": 2676,
      "ply": 2677,
      "tax": 2678,
      "north": 2679,
      "cing": 2680,
      "south": 2681,
      "ony": 2682,
      "enjoy": 2683,
      "vember": 2684,
      "learn": 2685,
      "white": 2686,
      "mot": 2687,
      "November": 2688,
      "Ed": 2689,
      "Sing": 2690,
      "Tw": 2691,
      "ington": 2692,
      "ancial": 2693,
      "services": 2694,
      "ove": 2695,
      "ilities": 2696,
      "project": 2697,
      "exist": 2698,
      "ured": 2699,
      "ondon": 2700,
      "tar": 2701,
      "Africa": 2702,
      "give": 2703,
      "gether": 2704,
      "away": 2705,
      "histor": 2706,
      "commonly": 2707,
      "Tell": 2708,
      "money": 2709,
      "acy": 2710,
      "points": 2711,
      "introdu": 2712,
      "January": 2713,
      "28": 2714,
      "London": 2715,
      "oto": 2716,
      "Sc": 2717,
      "too": 2718,
      "post": 2719,
      "applic": 2720,
      "reference": 2721,
      "Dav": 2722,
      "Pres": 2723,
      "cit": 2724,
      "ique": 2725,
      "service": 2726,
      "electr": 2727,
      "provide": 2728,
      "super": 2729,
      "bs": 2730,
      "itary": 2731,
      "vious": 2732,
      "building": 2733,
      "week": 2734,
      "Germany": 2735,
      "story": 2736,
      "Chin": 2737,
      "park": 2738,
      "27": 2739,
      "amples": 2740,
      "black": 2741,
      "29": 2742,
      "coming": 2743,
      "ief": 2744,
      "guitar": 2745,
      "Fo": 2746,
      "Mus": 2747,
      "za": 2748,
      "achie": 2749,
      "certain": 2750,
      "possible": 2751,
      "ax": 2752,
      "coffee": 2753,
      "mater": 2754,
      "written": 2755,
      "bab": 2756,
      "pan": 2757,
      "least": 2758,
      "oung": 2759,
      "consist": 2760,
      "function": 2761,
      "race": 2762,
      "ills": 2763,
      "Char": 2764,
      "ought": 2765,
      "consum": 2766,
      "Am": 2767,
      "El": 2768,
      "cities": 2769,
      "offer": 2770,
      "lete": 2771,
      "forms": 2772,
      "rown": 2773,
      "26": 2774,
      "Mich": 2775,
      "ike": 2776,
      "init": 2777,
      "ull": 2778,
      "utes": 2779,
      "started": 2780,
      "video": 2781,
      "Mal": 2782,
      "ont": 2783,
      "recogn": 2784,
      "close": 2785,
      "published": 2786,
      "asketball": 2787,
      "School": 2788,
      "plant": 2789,
      "leted": 2790,
      "provided": 2791,
      "lower": 2792,
      "playing": 2793,
      "significant": 2794,
      "2017": 2795,
      "tournam": 2796,
      "..": 2797,
      "ino": 2798,
      "viron": 2799,
      "stat": 2800,
      "technology": 2801,
      "software": 2802,
      "tel": 2803,
      "role": 2804,
      "cade": 2805,
      "ham": 2806,
      "pay": 2807,
      "ze": 2808,
      "Canada": 2809,
      "continu": 2810,
      "instrument": 2811,
      "amount": 2812,
      "mountain": 2813,
      "step": 2814,
      "corpor": 2815,
      "received": 2816,
      "Ext": 2817,
      "ying": 2818,
      "ances": 2819,
      "create": 2820,
      "iction": 2821,
      "temper": 2822,
      "hor": 2823,
      "ellow": 2824,
      "original": 2825,
      "FA": 2826,
      "ey": 2827,
      "fur": 2828,
      "occur": 2829,
      "working": 2830,
      "curity": 2831,
      "multiple": 2832,
      "Cent": 2833,
      "Res": 2834,
      "cup": 2835,
      "ison": 2836,
      "Australia": 2837,
      "Gold": 2838,
      "forman": 2839,
      "aper": 2840,
      "green": 2841,
      "cially": 2842,
      "ological": 2843,
      "uck": 2844,
      "zer": 2845,
      "report": 2846,
      "iding": 2847,
      "half": 2848,
      "By": 2849,
      "claim": 2850,
      "collect": 2851,
      "full": 2852,
      "appear": 2853,
      "House": 2854,
      "cast": 2855,
      "fort": 2856,
      "itect": 2857,
      "ski": 2858,
      "source": 2859,
      "available": 2860,
      "60": 2861,
      "user": 2862,
      "took": 2863,
      "bruary": 2864,
      "words": 2865,
      "political": 2866,
      "February": 2867,
      "40": 2868,
      "Feder": 2869,
      "icle": 2870,
      "aves": 2871,
      "ufact": 2872,
      "together": 2873,
      "award": 2874,
      "Franc": 2875,
      "size": 2876,
      "ster": 2877,
      "aft": 2878,
      "production": 2879,
      "fire": 2880,
      "rac": 2881,
      "door": 2882,
      "Air": 2883,
      "Gree": 2884,
      "inst": 2885,
      "seven": 2886,
      "personal": 2887,
      "successful": 2888,
      "hot": 2889,
      "rist": 2890,
      "anal": 2891,
      "access": 2892,
      "els": 2893,
      "grad": 2894,
      "Phil": 2895,
      "bot": 2896,
      "ges": 2897,
      "ico": 2898,
      "cean": 2899,
      "referred": 2900,
      "opt": 2901,
      "speed": 2902,
      "ometimes": 2903,
      "Pal": 2904,
      "stor": 2905,
      "idge": 2906,
      "Des": 2907,
      "ules": 2908,
      "books": 2909,
      "23": 2910,
      "isco": 2911,
      "require": 2912,
      "communic": 2913,
      "oking": 2914,
      "ift": 2915,
      "look": 2916,
      "da": 2917,
      "iment": 2918,
      "gs": 2919,
      "inct": 2920,
      "ands": 2921,
      "running": 2922,
      "educ": 2923,
      "hit": 2924,
      "attr": 2925,
      "manufact": 2926,
      "love": 2927,
      "value": 2928,
      "experience": 2929,
      "Chinese": 2930,
      "pie": 2931,
      "sent": 2932,
      "environ": 2933,
      "190": 2934,
      "events": 2935,
      "James": 2936,
      "bed": 2937,
      "civil": 2938,
      "performan": 2939,
      "2016": 2940,
      "Super": 2941,
      "Per": 2942,
      "here": 2943,
      "rate": 2944,
      "accoun": 2945,
      "bel": 2946,
      "ained": 2947,
      "summer": 2948,
      "Bra": 2949,
      "Great": 2950,
      "TV": 2951,
      "ael": 2952,
      "actions": 2953,
      "Bay": 2954,
      "Po": 2955,
      "Wash": 2956,
      "fig": 2957,
      "outhern": 2958,
      "NBA": 2959,
      "science": 2960,
      "aj": 2961,
      "iverse": 2962,
      "ife": 2963,
      "previous": 2964,
      "stead": 2965,
      "box": 2966,
      "Day": 2967,
      "iet": 2968,
      "asing": 2969,
      "abor": 2970,
      "bir": 2971,
      "economic": 2972,
      "iddle": 2973,
      "oil": 2974,
      "2023": 2975,
      "established": 2976,
      "But": 2977,
      "living": 2978,
      "always": 2979,
      "begin": 2980,
      "prove": 2981,
      "My": 2982,
      "Pol": 2983,
      "avor": 2984,
      "State": 2985,
      "Russ": 2986,
      "William": 2987,
      "East": 2988,
      "ford": 2989,
      "areas": 2990,
      "going": 2991,
      "military": 2992,
      "average": 2993,
      "During": 2994,
      "anish": 2995,
      "2015": 2996,
      "models": 2997,
      "activities": 2998,
      "bow": 2999,
      "east": 3000,
      "na": 3001,
      "2009": 3002,
      "understand": 3003,
      "hours": 3004,
      "Dis": 3005,
      "Roman": 3006,
      "erous": 3007,
      "child": 3008,
      "2008": 3009,
      "ani": 3010,
      "share": 3011,
      "Washington": 3012,
      "host": 3013,
      "why": 3014,
      "lines": 3015,
      "sound": 3016,
      "ising": 3017,
      "financial": 3018,
      "needed": 3019,
      "approach": 3020,
      "Most": 3021,
      "Play": 3022,
      "ners": 3023,
      "antic": 3024,
      "2011": 3025,
      "variety": 3026,
      "Comp": 3027,
      "death": 3028,
      "author": 3029,
      "names": 3030,
      "moved": 3031,
      "increase": 3032,
      "Med": 3033,
      "dest": 3034,
      "erc": 3035,
      "championship": 3036,
      "makes": 3037,
      "2010": 3038,
      "ule": 3039,
      "lymp": 3040,
      "architect": 3041,
      "First": 3042,
      "George": 3043,
      "CO": 3044,
      "Gre": 3045,
      "Jack": 3046,
      "dro": 3047,
      "sometimes": 3048,
      "stream": 3049,
      "card": 3050,
      "hab": 3051,
      "avy": 3052,
      "Ang": 3053,
      "style": 3054,
      "Many": 3055,
      "international": 3056,
      "ado": 3057,
      "scient": 3058,
      "physical": 3059,
      "Act": 3060,
      "Mic": 3061,
      "Port": 3062,
      "case": 3063,
      "ials": 3064,
      "anch": 3065,
      "Republic": 3066,
      "ked": 3067,
      "independ": 3068,
      "products": 3069,
      "friend": 3070,
      "ula": 3071,
      "35": 3072,
      "mid": 3073,
      "watch": 3074,
      "sem": 3075,
      "phone": 3076,
      "Don": 3077,
      "omb": 3078,
      "2014": 3079,
      "sold": 3080,
      "era": 3081,
      "ope": 3082,
      "80": 3083,
      "Open": 3084,
      "SA": 3085,
      "quick": 3086,
      "goal": 3087,
      "difference": 3088,
      "bank": 3089,
      "past": 3090,
      "ises": 3091,
      "illed": 3092,
      "emp": 3093,
      "included": 3094,
      "miles": 3095,
      "date": 3096,
      "ka": 3097,
      "below": 3098,
      "means": 3099,
      "Championship": 3100,
      "aking": 3101,
      "animals": 3102,
      "impact": 3103,
      "complete": 3104,
      "syn": 3105,
      "throughout": 3106,
      "Black": 3107,
      "Kingdom": 3108,
      "global": 3109,
      "once": 3110,
      "ively": 3111,
      "mass": 3112,
      "vill": 3113,
      "includes": 3114,
      "addition": 3115,
      "said": 3116,
      "River": 3117,
      "ounced": 3118,
      "Christ": 3119,
      "relation": 3120,
      "ken": 3121,
      "err": 3122,
      "perform": 3123,
      "laun": 3124,
      "humans": 3125,
      "network": 3126,
      "ients": 3127,
      "decl": 3128,
      "2012": 3129,
      "Del": 3130,
      "lood": 3131,
      "Asia": 3132,
      "movie": 3133,
      "friends": 3134,
      "primary": 3135,
      "Olymp": 3136,
      "ae": 3137,
      "individual": 3138,
      "father": 3139,
      "snow": 3140,
      "plants": 3141,
      "Where": 3142,
      "months": 3143,
      "defe": 3144,
      "weather": 3145,
      "ican": 3146,
      "International": 3147,
      "format": 3148,
      "higher": 3149,
      "Extract": 3150,
      "cial": 3151,
      "think": 3152,
      "title": 3153,
      "Val": 3154,
      "women": 3155,
      "oud": 3156,
      "pose": 3157,
      "related": 3158,
      "widely": 3159,
      "environment": 3160,
      "Qu": 3161,
      "respons": 3162,
      "tournament": 3163,
      "Award": 3164,
      "Here": 3165,
      "parts": 3166,
      "Mex": 3167,
      "reme": 3168,
      "terms": 3169,
      "188": 3170,
      "likely": 3171,
      "described": 3172,
      "spr": 3173,
      "iter": 3174,
      "outside": 3175,
      "Ital": 3176,
      "mand": 3177,
      "neg": 3178,
      "akes": 3179,
      "minutes": 3180,
      "however": 3181,
      "Spanish": 3182,
      "ficult": 3183,
      "High": 3184,
      "ona": 3185,
      "items": 3186,
      "star": 3187,
      "quality": 3188,
      "regular": 3189,
      "Francisco": 3190,
      "sets": 3191,
      "avo": 3192,
      "evol": 3193,
      "2013": 3194,
      "2007": 3195,
      "ysis": 3196,
      "culture": 3197,
      "vac": 3198,
      "pecially": 3199,
      "novel": 3200,
      "Atl": 3201,
      "growth": 3202,
      "performance": 3203,
      "Pa": 3204,
      "ube": 3205,
      "especially": 3206,
      "places": 3207,
      "Japanese": 3208,
      "dat": 3209,
      "died": 3210,
      "ibe": 3211,
      "sho": 3212,
      "priv": 3213,
      "difficult": 3214,
      "Bel": 3215,
      "dig": 3216,
      "ald": 3217,
      "standard": 3218,
      "track": 3219,
      "never": 3220,
      "exerc": 3221,
      "greatest": 3222,
      "designed": 3223,
      "County": 3224,
      "Ber": 3225,
      "batter": 3226,
      "basketball": 3227,
      "istic": 3228,
      "media": 3229,
      "fruit": 3230,
      "veh": 3231,
      "improve": 3232,
      "Mor": 3233,
      "intern": 3234,
      "rot": 3235,
      "traditional": 3236,
      "Cap": 3237,
      "income": 3238,
      "tool": 3239,
      "ender": 3240,
      "feature": 3241,
      "loss": 3242,
      "invent": 3243,
      "winning": 3244,
      "placed": 3245,
      "soft": 3246,
      "roll": 3247,
      "umb": 3248,
      "189": 3249,
      "mission": 3250,
      "associated": 3251,
      "tasks": 3252,
      "deli": 3253,
      "estim": 3254,
      "contain": 3255,
      "color": 3256,
      "maintain": 3257,
      "President": 3258,
      "fut": 3259,
      "ware": 3260,
      "complex": 3261,
      "answ": 3262,
      "According": 3263,
      "Western": 3264,
      "ov": 3265,
      "ams": 3266,
      "resh": 3267,
      "cas": 3268,
      "regard": 3269,
      "industry": 3270,
      "machine": 3271,
      "31": 3272,
      "Pac": 3273,
      "bon": 3274,
      "dy": 3275,
      "ille": 3276,
      "photo": 3277,
      "characters": 3278,
      ".,": 3279,
      "rap": 3280,
      "ery": 3281,
      "recent": 3282,
      "earli": 3283,
      "features": 3284,
      "kind": 3285,
      "reet": 3286,
      "orn": 3287,
      "arily": 3288,
      "resour": 3289,
      "ification": 3290,
      "commer": 3291,
      "positive": 3292,
      "location": 3293,
      "500": 3294,
      "Bill": 3295,
      "cient": 3296,
      "animal": 3297,
      "introduced": 3298,
      "pet": 3299,
      "via": 3300,
      "league": 3301,
      "veget": 3302,
      "serve": 3303,
      "sug": 3304,
      "something": 3305,
      "fir": 3306,
      "nature": 3307,
      "2004": 3308,
      "central": 3309,
      "study": 3310,
      "Lu": 3311,
      "Part": 3312,
      "Sum": 3313,
      "teen": 3314,
      "seen": 3315,
      "security": 3316,
      "apore": 3317,
      "blue": 3318,
      "Michael": 3319,
      "further": 3320,
      "den": 3321,
      "leep": 3322,
      "cars": 3323,
      "followed": 3324,
      "Grand": 3325,
      "results": 3326,
      "television": 3327,
      "Italian": 3328,
      "aid": 3329,
      "bird": 3330,
      "mocr": 3331,
      "uments": 3332,
      "cook": 3333,
      "2006": 3334,
      "languages": 3335,
      "ready": 3336,
      "allows": 3337,
      "List": 3338,
      "van": 3339,
      "urch": 3340,
      "ference": 3341,
      "iate": 3342,
      "say": 3343,
      "enough": 3344,
      "tran": 3345,
      "Singapore": 3346,
      "Mart": 3347,
      "Sal": 3348,
      "categ": 3349,
      "stay": 3350,
      "opp": 3351,
      "effic": 3352,
      "struction": 3353,
      "Braz": 3354,
      "scre": 3355,
      "aries": 3356,
      "gent": 3357,
      "iPh": 3358,
      "theory": 3359,
      "iger": 3360,
      "plat": 3361,
      "qual": 3362,
      "exper": 3363,
      "surface": 3364,
      "ociety": 3365,
      "quarter": 3366,
      "frequ": 3367,
      "territ": 3368,
      "examples": 3369,
      "electron": 3370,
      "course": 3371,
      "relationship": 3372,
      "Emp": 3373,
      "Write": 3374,
      "scr": 3375,
      "beaut": 3376,
      "2000": 3377,
      "lost": 3378,
      "goals": 3379,
      "draw": 3380,
      "tellig": 3381,
      "Bu": 3382,
      "CA": 3383,
      "Mil": 3384,
      "drive": 3385,
      "purch": 3386,
      "analysis": 3387,
      "Name": 3388,
      "abilities": 3389,
      "useum": 3390,
      "leading": 3391,
      "Che": 3392,
      "La": 3393,
      "Mad": 3394,
      "mind": 3395,
      "winter": 3396,
      "ctions": 3397,
      "emer": 3398,
      "cred": 3399,
      "party": 3400,
      "Lake": 3401,
      "astr": 3402,
      "select": 3403,
      "ume": 3404,
      "phen": 3405,
      "Although": 3406,
      "65": 3407,
      "rup": 3408,
      "eds": 3409,
      "ung": 3410,
      "aged": 3411,
      "condu": 3412,
      "Star": 3413,
      "Art": 3414,
      "covered": 3415,
      "meaning": 3416,
      "Mag": 3417,
      "Vir": 3418,
      "cop": 3419,
      "trip": 3420,
      "astic": 3421,
      "longer": 3422,
      "advant": 3423,
      "liter": 3424,
      "Haw": 3425,
      "went": 3426,
      "ental": 3427,
      "cutive": 3428,
      "square": 3429,
      "David": 3430,
      "hon": 3431,
      "mix": 3432,
      "amil": 3433,
      "front": 3434,
      "code": 3435,
      "prevent": 3436,
      "Union": 3437,
      "factors": 3438,
      "dogs": 3439,
      "Brazil": 3440,
      "fail": 3441,
      "ging": 3442,
      "sen": 3443,
      "heat": 3444,
      "clos": 3445,
      "meet": 3446,
      "bread": 3447,
      "processing": 3448,
      "Angel": 3449,
      "Bost": 3450,
      "cil": 3451,
      "fit": 3452,
      "ned": 3453,
      "above": 3454,
      "feet": 3455,
      "Chic": 3456,
      "although": 3457,
      "Spain": 3458,
      "groups": 3459,
      "Boston": 3460,
      "Gener": 3461,
      "odes": 3462,
      "Em": 3463,
      "Pre": 3464,
      "acqu": 3465,
      "arts": 3466,
      "compon": 3467,
      "Its": 3468,
      "center": 3469,
      "atively": 3470,
      "subject": 3471,
      "fruits": 3472,
      "Pat": 3473,
      "dish": 3474,
      "hind": 3475,
      "table": 3476,
      "estic": 3477,
      "erson": 3478,
      "Italy": 3479,
      "changes": 3480,
      "Tur": 3481,
      "pick": 3482,
      "content": 3483,
      "187": 3484,
      "Pacific": 3485,
      "wa": 3486,
      "idence": 3487,
      "cry": 3488,
      "Football": 3489,
      "Elect": 3490,
      "someone": 3491,
      "particip": 3492,
      "risk": 3493,
      "feder": 3494,
      "nis": 3495,
      "etc": 3496,
      "Island": 3497,
      "domin": 3498,
      "swim": 3499,
      "Harry": 3500,
      "practice": 3501,
      "job": 3502,
      "inte": 3503,
      "lying": 3504,
      "ows": 3505,
      "ights": 3506,
      "cheese": 3507,
      "iPhone": 3508,
      "cross": 3509,
      "ker": 3510,
      "stant": 3511,
      "rather": 3512,
      "Central": 3513,
      "suggest": 3514,
      "Rich": 3515,
      "Sha": 3516,
      "uals": 3517,
      "chall": 3518,
      "Sea": 3519,
      "official": 3520,
      "broad": 3521,
      "sand": 3522,
      "tun": 3523,
      "ange": 3524,
      "conditions": 3525,
      "College": 3526,
      "structure": 3527,
      "stop": 3528,
      "load": 3529,
      "Thom": 3530,
      "larger": 3531,
      "fund": 3532,
      "simple": 3533,
      "smaller": 3534,
      "titles": 3535,
      "approxim": 3536,
      "taking": 3537,
      "attem": 3538,
      "arg": 3539,
      "omin": 3540,
      "mechan": 3541,
      "situ": 3542,
      "eat": 3543,
      "mor": 3544,
      "announced": 3545,
      "hydro": 3546,
      "community": 3547,
      "Tom": 3548,
      "iqu": 3549,
      "thes": 3550,
      "today": 3551,
      "tee": 3552,
      "teach": 3553,
      "trained": 3554,
      "economy": 3555,
      "Ho": 3556,
      "recomm": 3557,
      "coast": 3558,
      "movies": 3559,
      "reasons": 3560,
      "Chicago": 3561,
      "ID": 3562,
      "ny": 3563,
      "zon": 3564,
      "altern": 3565,
      "ership": 3566,
      "safe": 3567,
      "graphy": 3568,
      "cul": 3569,
      "ioned": 3570,
      "sea": 3571,
      "termin": 3572,
      "log": 3573,
      "Mexico": 3574,
      "Sk": 3575,
      "Sam": 3576,
      "Tes": 3577,
      "Year": 3578,
      "astern": 3579,
      "ledge": 3580,
      "little": 3581,
      "baseball": 3582,
      "benefits": 3583,
      "Hol": 3584,
      "Met": 3585,
      "Sch": 3586,
      "pack": 3587,
      "treat": 3588,
      "aps": 3589,
      "ockey": 3590,
      "iang": 3591,
      "Scot": 3592,
      "dict": 3593,
      "itor": 3594,
      "concer": 3595,
      "2005": 3596,
      "future": 3597,
      "spect": 3598,
      "tennis": 3599,
      "milk": 3600,
      "options": 3601,
      "Mer": 3602,
      "doc": 3603,
      "done": 3604,
      "labor": 3605,
      "pite": 3606,
      "ened": 3607,
      "reed": 3608,
      "exe": 3609,
      "Seattle": 3610,
      "Add": 3611,
      "takes": 3612,
      "competition": 3613,
      "focus": 3614,
      "Best": 3615,
      "Tex": 3616,
      "wine": 3617,
      "agon": 3618,
      "spread": 3619,
      "glass": 3620,
      "Que": 3621,
      "Ze": 3622,
      "shot": 3623,
      "ava": 3624,
      "target": 3625,
      "Ama": 3626,
      "Based": 3627,
      "Cam": 3628,
      "ba": 3629,
      "fresh": 3630,
      "deep": 3631,
      "ption": 3632,
      "Empire": 3633,
      "Los": 3634,
      "nation": 3635,
      "ini": 3636,
      "respect": 3637,
      "popul": 3638,
      "NF": 3639,
      "Os": 3640,
      "TO": 3641,
      "almost": 3642,
      "equip": 3643,
      "temperature": 3644,
      "Other": 3645,
      "lebr": 3646,
      "idea": 3647,
      "craft": 3648,
      "itionally": 3649,
      "needs": 3650,
      "Reg": 3651,
      "increased": 3652,
      "movement": 3653,
      "problem": 3654,
      "Tesla": 3655,
      "gas": 3656,
      "rice": 3657,
      "entire": 3658,
      "cricket": 3659,
      "films": 3660,
      "activity": 3661,
      "management": 3662,
      "Fil": 3663,
      "rise": 3664,
      "instead": 3665,
      "icles": 3666,
      "irl": 3667,
      "ipp": 3668,
      "stitut": 3669,
      "transport": 3670,
      "nic": 3671,
      "Associ": 3672,
      "suf": 3673,
      "fully": 3674,
      "sales": 3675,
      "Apple": 3676,
      "IS": 3677,
      "Je": 3678,
      "Since": 3679,
      "Tour": 3680,
      "golf": 3681,
      "sat": 3682,
      "izing": 3683,
      "Arab": 3684,
      "venue": 3685,
      "stock": 3686,
      "electrical": 3687,
      "--": 3688,
      "70": 3689,
      "tro": 3690,
      "epis": 3691,
      "regions": 3692,
      "extract": 3693,
      "distance": 3694,
      "education": 3695,
      "Mac": 3696,
      "Mountain": 3697,
      "swe": 3698,
      "tic": 3699,
      "ably": 3700,
      "ibility": 3701,
      "getting": 3702,
      "writer": 3703,
      "version": 3704,
      "Paul": 3705,
      "LL": 3706,
      "Ple": 3707,
      "kil": 3708,
      "pair": 3709,
      "heart": 3710,
      "iful": 3711,
      "coach": 3712,
      "prefer": 3713,
      "ministr": 3714,
      "added": 3715,
      "writing": 3716,
      "elements": 3717,
      "potential": 3718,
      "dates": 3719,
      "tree": 3720,
      "behind": 3721,
      "quant": 3722,
      "worldwide": 3723,
      "leader": 3724,
      "electricity": 3725,
      "integr": 3726,
      "ease": 3727,
      "ole": 3728,
      "ander": 3729,
      "sec": 3730,
      "imple": 3731,
      "ishing": 3732,
      "buy": 3733,
      "provides": 3734,
      "selves": 3735,
      "Not": 3736,
      "vice": 3737,
      "ena": 3738,
      "rote": 3739,
      "imm": 3740,
      "unique": 3741,
      "Acade": 3742,
      "rich": 3743,
      "contact": 3744,
      "students": 3745,
      "walk": 3746,
      "nes": 3747,
      "spo": 3748,
      "aving": 3749,
      "aff": 3750,
      "check": 3751,
      "People": 3752,
      "engineering": 3753,
      "Micro": 3754,
      "Amazon": 3755,
      "Big": 3756,
      "Gen": 3757,
      "Pot": 3758,
      "rules": 3759,
      "compl": 3760,
      "levels": 3761,
      "particularly": 3762,
      "commercial": 3763,
      "Angeles": 3764,
      "Ben": 3765,
      "hom": 3766,
      "yr": 3767,
      "young": 3768,
      "celebr": 3769,
      "oted": 3770,
      "earth": 3771,
      "release": 3772,
      "CE": 3773,
      "Kar": 3774,
      "ox": 3775,
      "sil": 3776,
      "ties": 3777,
      "station": 3778,
      "stage": 3779,
      "caused": 3780,
      "multi": 3781,
      "custom": 3782,
      "45": 3783,
      "Off": 3784,
      "gold": 3785,
      "tend": 3786,
      "ouch": 3787,
      "beha": 3788,
      "ida": 3789,
      "concept": 3790,
      "neigh": 3791,
      "price": 3792,
      "office": 3793,
      "extreme": 3794,
      "fourth": 3795,
      "Once": 3796,
      "pressure": 3797,
      "Game": 3798,
      "Wood": 3799,
      "fant": 3800,
      "ius": 3801,
      "enced": 3802,
      "bell": 3803,
      "ops": 3804,
      "phil": 3805,
      "required": 3806,
      "approximately": 3807,
      "Dep": 3808,
      "ert": 3809,
      "ention": 3810,
      "spir": 3811,
      "brand": 3812,
      "additional": 3813,
      "relig": 3814,
      "runs": 3815,
      "domestic": 3816,
      "originally": 3817,
      "easy": 3818,
      "salt": 3819,
      "problems": 3820,
      "applications": 3821,
      "64": 3822,
      "wrote": 3823,
      "thus": 3824,
      "ators": 3825,
      "mob": 3826,
      "White": 3827,
      "ogle": 3828,
      "answer": 3829,
      "mier": 3830,
      "sleep": 3831,
      "ston": 3832,
      "express": 3833,
      "Texas": 3834,
      "Cur": 3835,
      "eight": 3836,
      "inj": 3837,
      "asters": 3838,
      "beach": 3839,
      "augh": 3840,
      "birth": 3841,
      "Green": 3842,
      "quickly": 3843,
      "din": 3844,
      "fight": 3845,
      "jour": 3846,
      "anced": 3847,
      "aring": 3848,
      "achieve": 3849,
      "Golden": 3850,
      "resources": 3851,
      "99": 3852,
      "Lat": 3853,
      "prior": 3854,
      "2001": 3855,
      "viol": 3856,
      "contribut": 3857,
      "Paris": 3858,
      "question": 3859,
      "telligence": 3860,
      "Alex": 3861,
      "Pan": 3862,
      "hood": 3863,
      "lack": 3864,
      "sn": 3865,
      "roy": 3866,
      "istics": 3867,
      "vert": 3868,
      "Congress": 3869,
      "highly": 3870,
      "lake": 3871,
      "knowledge": 3872,
      "material": 3873,
      "Awards": 3874,
      "ded": 3875,
      "ren": 3876,
      "uk": 3877,
      "alg": 3878,
      "appl": 3879,
      "worth": 3880,
      "icken": 3881,
      "numbers": 3882,
      "Blue": 3883,
      "soccer": 3884,
      "behavi": 3885,
      "Of": 3886,
      "counter": 3887,
      "cum": 3888,
      "cks": 3889,
      "dol": 3890,
      "wall": 3891,
      "rect": 3892,
      "island": 3893,
      "ros": 3894,
      "ota": 3895,
      "ips": 3896,
      "dry": 3897,
      "Frank": 3898,
      "purpose": 3899,
      "organization": 3900,
      "Each": 3901,
      "Hall": 3902,
      "Mark": 3903,
      "Ocean": 3904,
      "Sm": 3905,
      "aign": 3906,
      "whole": 3907,
      "starting": 3908,
      "views": 3909,
      "primarily": 3910,
      "Google": 3911,
      "Are": 3912,
      "Spe": 3913,
      "favor": 3914,
      "mom": 3915,
      "ored": 3916,
      "rew": 3917,
      "atory": 3918,
      "itself": 3919,
      "istan": 3920,
      "dex": 3921,
      "wealth": 3922,
      "bring": 3923,
      "oldest": 3924,
      "gypt": 3925,
      "rights": 3926,
      "Australian": 3927,
      "bound": 3928,
      "smo": 3929,
      "slow": 3930,
      "inking": 3931,
      "deal": 3932,
      "becoming": 3933,
      "meat": 3934,
      "useful": 3935,
      "prep": 3936,
      "butter": 3937,
      "college": 3938,
      "requires": 3939,
      "Association": 3940,
      "AP": 3941,
      "lic": 3942,
      "igr": 3943,
      "themselves": 3944,
      "seasons": 3945,
      "store": 3946,
      "Sovi": 3947,
      "System": 3948,
      "Greek": 3949,
      "Academy": 3950,
      "lam": 3951,
      "length": 3952,
      "Robert": 3953,
      "estimated": 3954,
      "32": 3955,
      "Fire": 3956,
      "western": 3957,
      "foot": 3958,
      "moving": 3959,
      "respond": 3960,
      "radio": 3961,
      "Atlantic": 3962,
      "90": 3963,
      "Egypt": 3964,
      "Fol": 3965,
      "OS": 3966,
      "blood": 3967,
      "vict": 3968,
      "imin": 3969,
      "upon": 3970,
      "records": 3971,
      "Hu": 3972,
      "Jer": 3973,
      "Lin": 3974,
      "Sol": 3975,
      "dou": 3976,
      "election": 3977,
      "1998": 3978,
      "founder": 3979,
      "taken": 3980,
      "limited": 3981,
      "believ": 3982,
      "trees": 3983,
      "continued": 3984,
      "habit": 3985,
      "mill": 3986,
      "detail": 3987,
      "utch": 3988,
      "akers": 3989,
      "cret": 3990,
      "osop": 3991,
      "objects": 3992,
      "audi": 3993,
      "gradu": 3994,
      ".[": 3995,
      "Bow": 3996,
      "Rock": 3997,
      "bour": 3998,
      "ps": 3999,
      "task": 4000,
      "online": 4001,
      "frame": 4002,
      "mathem": 4003,
      "prompt": 4004,
      "eventually": 4005,
      "exercise": 4006,
      "',": 4007,
      "hous": 4008,
      "ening": 4009,
      "alive": 4010,
      "ingred": 4011,
      "deb": 4012,
      "debut": 4013,
      "comma": 4014,
      "cycle": 4015,
      "thought": 4016,
      "beautiful": 4017,
      "Ty": 4018,
      "flo": 4019,
      "jud": 4020,
      "pow": 4021,
      "vary": 4022,
      "That": 4023,
      "rail": 4024,
      "colors": 4025,
      "skills": 4026,
      "stitute": 4027,
      "employe": 4028,
      "Virgin": 4029,
      "bass": 4030,
      "cats": 4031,
      "voc": 4032,
      "wild": 4033,
      "usion": 4034,
      "necess": 4035,
      "crease": 4036,
      "1999": 4037,
      "climate": 4038,
      "DC": 4039,
      "Gal": 4040,
      "Kore": 4041,
      "ns": 4042,
      "iday": 4043,
      "appoint": 4044,
      "worked": 4045,
      "protect": 4046,
      "Hy": 4047,
      "pitch": 4048,
      "amed": 4049,
      "adult": 4050,
      "pool": 4051,
      "izes": 4052,
      "parents": 4053,
      "ificial": 4054,
      "minim": 4055,
      "border": 4056,
      "bike": 4057,
      "selling": 4058,
      "Please": 4059,
      "Ab": 4060,
      "Sci": 4061,
      "asc": 4062,
      "uries": 4063,
      "oting": 4064,
      "Inter": 4065,
      "actually": 4066,
      "princ": 4067,
      "Democr": 4068,
      "property": 4069,
      "Music": 4070,
      "drop": 4071,
      "hu": 4072,
      "hib": 4073,
      "saw": 4074,
      "ivity": 4075,
      "lie": 4076,
      "capt": 4077,
      "Because": 4078,
      "transfer": 4079,
      "sources": 4080,
      "restaur": 4081,
      "joined": 4082,
      "reached": 4083,
      "reduce": 4084,
      "equipment": 4085,
      "rates": 4086,
      "ya": 4087,
      "asy": 4088,
      "except": 4089,
      "ibution": 4090,
      "2002": 4091,
      "disease": 4092,
      "generation": 4093,
      "planet": 4094,
      "court": 4095,
      "private": 4096,
      "Lar": 4097,
      "Mass": 4098,
      "Time": 4099,
      "fif": 4100,
      "fem": 4101,
      "gree": 4102,
      "sens": 4103,
      "edy": 4104,
      "20th": 4105,
      "186": 4106,
      "colon": 4107,
      "solar": 4108,
      "operating": 4109,
      "scale": 4110,
      "connect": 4111,
      "eggs": 4112,
      "AT": 4113,
      "Use": 4114,
      "lon": 4115,
      "enc": 4116,
      "enty": 4117,
      "mother": 4118,
      "expand": 4119,
      "Soviet": 4120,
      "Mary": 4121,
      "pts": 4122,
      "oul": 4123,
      "idents": 4124,
      "grand": 4125,
      "charge": 4126,
      "directed": 4127,
      "expensive": 4128,
      "involved": 4129,
      "Bal": 4130,
      "Li": 4131,
      "Roy": 4132,
      "ech": 4133,
      "site": 4134,
      "forces": 4135,
      "abs": 4136,
      "Club": 4137,
      "recorded": 4138,
      "measure": 4139,
      "Federer": 4140,
      "75": 4141,
      "Soc": 4142,
      "gain": 4143,
      "mat": 4144,
      "river": 4145,
      "inary": 4146,
      "onom": 4147,
      "theast": 4148,
      "arm": 4149,
      "iting": 4150,
      "itude": 4151,
      "aging": 4152,
      "percent": 4153,
      "defined": 4154,
      "challeng": 4155,
      "hydrogen": 4156,
      "Miss": 4157,
      "fat": 4158,
      "kids": 4159,
      "mun": 4160,
      "path": 4161,
      "ita": 4162,
      "ache": 4163,
      "sey": 4164,
      "covery": 4165,
      "drum": 4166,
      "causes": 4167,
      "Group": 4168,
      "controll": 4169,
      "LLM": 4170,
      "Flor": 4171,
      "Gar": 4172,
      "bad": 4173,
      "cand": 4174,
      "ij": 4175,
      "consists": 4176,
      "musical": 4177,
      "contract": 4178,
      "bond": 4179,
      "mel": 4180,
      "uct": 4181,
      "really": 4182,
      "ara": 4183,
      "sugar": 4184,
      "core": 4185,
      "looking": 4186,
      "produce": 4187,
      "currently": 4188,
      "remains": 4189,
      "pattern": 4190,
      "village": 4191,
      "Sur": 4192,
      "gard": 4193,
      "ring": 4194,
      "southern": 4195,
      "infl": 4196,
      "completed": 4197,
      "owned": 4198,
      "bridge": 4199,
      "2003": 4200,
      "implement": 4201,
      "Hist": 4202,
      "Mah": 4203,
      "Sen": 4204,
      "fel": 4205,
      "apes": 4206,
      "whose": 4207,
      "increasing": 4208,
      "decision": 4209,
      "bulleted": 4210,
      "refers": 4211,
      "methods": 4212,
      "Over": 4213,
      "bol": 4214,
      "ju": 4215,
      "iny": 4216,
      "leaves": 4217,
      "clo": 4218,
      "clean": 4219,
      "stitution": 4220,
      "programming": 4221,
      "awarded": 4222,
      "beginning": 4223,
      "Hen": 4224,
      "Ram": 4225,
      "Up": 4226,
      "dark": 4227,
      "cannot": 4228,
      "predict": 4229,
      "flight": 4230,
      "cycl": 4231,
      "effects": 4232,
      "influence": 4233,
      "digital": 4234,
      "Hawai": 4235,
      "got": 4236,
      "nal": 4237,
      "aland": 4238,
      "anta": 4239,
      "note": 4240,
      "forest": 4241,
      "numerous": 4242,
      "protein": 4243,
      "join": 4244,
      "African": 4245,
      "individuals": 4246,
      "nuclear": 4247,
      "Charles": 4248,
      "Disney": 4249,
      "iques": 4250,
      "lives": 4251,
      "marr": 4252,
      "ries": 4253,
      "overall": 4254,
      "1997": 4255,
      "northern": 4256,
      "Portug": 4257,
      "34": 4258,
      "AS": 4259,
      "UK": 4260,
      "mess": 4261,
      "ote": 4262,
      "tur": 4263,
      "analy": 4264,
      "isation": 4265,
      "belong": 4266,
      "ola": 4267,
      "print": 4268,
      "cool": 4269,
      "plays": 4270,
      "Another": 4271,
      "simply": 4272,
      "valu": 4273,
      "opened": 4274,
      "layer": 4275,
      "account": 4276,
      "38": 4277,
      "Cour": 4278,
      "Hum": 4279,
      "Pay": 4280,
      "Sim": 4281,
      "Ver": 4282,
      "eve": 4283,
      "ero": 4284,
      "pected": 4285,
      "affect": 4286,
      "sky": 4287,
      "allowed": 4288,
      "changed": 4289,
      "issues": 4290,
      "tor": 4291,
      "ux": 4292,
      "ville": 4293,
      "accept": 4294,
      "adium": 4295,
      "conf": 4296,
      "liqu": 4297,
      "Marvel": 4298,
      "surround": 4299,
      "Wind": 4300,
      "ga": 4301,
      "gi": 4302,
      "degree": 4303,
      "optim": 4304,
      "trail": 4305,
      "ideas": 4306,
      "autom": 4307,
      "Zealand": 4308,
      "Ice": 4309,
      "Lou": 4310,
      "bing": 4311,
      "bicy": 4312,
      "ancient": 4313,
      "stone": 4314,
      "helps": 4315,
      "solid": 4316,
      "direction": 4317,
      "appeared": 4318,
      "campaign": 4319,
      "Russia": 4320,
      "federal": 4321,
      "Microsoft": 4322,
      "Fl": 4323,
      "hun": 4324,
      "rule": 4325,
      "wear": 4326,
      "restr": 4327,
      "dead": 4328,
      "administr": 4329,
      "cel": 4330,
      "comput": 4331,
      "contains": 4332,
      "inside": 4333,
      "surv": 4334,
      "majority": 4335,
      "custo": 4336,
      "avoid": 4337,
      "Potter": 4338,
      "36": 4339,
      "fiction": 4340,
      "towards": 4341,
      "determin": 4342,
      "progress": 4343,
      "izations": 4344,
      "1989": 4345,
      "singer": 4346,
      "supply": 4347,
      "foods": 4348,
      "describe": 4349,
      "device": 4350,
      "users": 4351,
      "Eastern": 4352,
      "bat": 4353,
      "cases": 4354,
      "lap": 4355,
      "rid": 4356,
      "itzer": 4357,
      "ament": 4358,
      "portun": 4359,
      "retire": 4360,
      "directly": 4361,
      "EC": 4362,
      "God": 4363,
      "adian": 4364,
      "ceed": 4365,
      "block": 4366,
      "ension": 4367,
      "extinct": 4368,
      "healthy": 4369,
      "negative": 4370,
      "Thomas": 4371,
      "48": 4372,
      "DP": 4373,
      "Dog": 4374,
      "iers": 4375,
      "itation": 4376,
      "iff": 4377,
      "suit": 4378,
      "bled": 4379,
      "sym": 4380,
      "1994": 4381,
      "passed": 4382,
      "legal": 4383,
      "scientific": 4384,
      "attempt": 4385,
      "ingredients": 4386,
      "cold": 4387,
      "yellow": 4388,
      "opportun": 4389,
      "1991": 4390,
      "famil": 4391,
      "Second": 4392,
      "chem": 4393,
      "reflect": 4394,
      "Martin": 4395,
      "Bang": 4396,
      "Ca": 4397,
      "Data": 4398,
      "Main": 4399,
      "Ter": 4400,
      "paper": 4401,
      "revenue": 4402,
      "according": 4403,
      "spend": 4404,
      "ampions": 4405,
      "Arch": 4406,
      "soon": 4407,
      "listed": 4408,
      "Jackson": 4409,
      "evolution": 4410,
      "NFL": 4411,
      "option": 4412,
      "strength": 4413,
      "cape": 4414,
      "trade": 4415,
      "USA": 4416,
      "Carol": 4417,
      "Moon": 4418,
      "responsible": 4419,
      "Party": 4420,
      "components": 4421,
      "Latin": 4422,
      "Water": 4423,
      "cam": 4424,
      "matter": 4425,
      "oo": 4426,
      "onse": 4427,
      "ports": 4428,
      "shows": 4429,
      "songs": 4430,
      "launched": 4431,
      "Song": 4432,
      "Tor": 4433,
      "oppos": 4434,
      "cloud": 4435,
      "artist": 4436,
      "geo": 4437,
      "strate": 4438,
      "compared": 4439,
      "proved": 4440,
      "operations": 4441,
      "growing": 4442,
      "nearly": 4443,
      "investment": 4444,
      "district": 4445,
      "platform": 4446,
      "Camp": 4447,
      "Dan": 4448,
      "Mod": 4449,
      "Young": 4450,
      "cou": 4451,
      "fix": 4452,
      "iest": 4453,
      "already": 4454,
      "forward": 4455,
      "endo": 4456,
      "immed": 4457,
      "univers": 4458,
      "estival": 4459,
      "Intern": 4460,
      "shape": 4461,
      "dried": 4462,
      "commit": 4463,
      "depending": 4464,
      "summ": 4465,
      "virt": 4466,
      "separated": 4467,
      "daily": 4468,
      "philosop": 4469,
      "Im": 4470,
      "Just": 4471,
      "Sto": 4472,
      "Tay": 4473,
      "Tube": 4474,
      "middle": 4475,
      "rom": 4476,
      "sau": 4477,
      "vation": 4478,
      "thers": 4479,
      "urban": 4480,
      "izza": 4481,
      "doing": 4482,
      "boat": 4483,
      "anger": 4484,
      "officially": 4485,
      "critical": 4486,
      "Christian": 4487,
      "49": 4488,
      "Dutch": 4489,
      "Vis": 4490,
      "bag": 4491,
      "ios": 4492,
      "saf": 4493,
      "incorpor": 4494,
      "intelligence": 4495,
      "heavy": 4496,
      "19th": 4497,
      "artment": 4498,
      "warm": 4499,
      "albums": 4500,
      "rapid": 4501,
      "advantage": 4502,
      "Old": 4503,
      "scor": 4504,
      "university": 4505,
      "construction": 4506,
      "performed": 4507,
      "grass": 4508,
      "iance": 4509,
      "phy": 4510,
      "grees": 4511,
      "flat": 4512,
      "finished": 4513,
      "1990": 4514,
      "chester": 4515,
      "circu": 4516,
      "Company": 4517,
      "Bud": 4518,
      "Bank": 4519,
      "Southern": 4520,
      "mis": 4521,
      "threat": 4522,
      "islands": 4523,
      "orith": 4524,
      "amm": 4525,
      "chain": 4526,
      "vised": 4527,
      "ranked": 4528,
      "ifying": 4529,
      "signed": 4530,
      "techniques": 4531,
      "burg": 4532,
      "Georg": 4533,
      "manufactur": 4534,
      "revol": 4535,
      "uts": 4536,
      "aint": 4537,
      "mentioned": 4538,
      "holds": 4539,
      "combination": 4540,
      "materials": 4541,
      "storage": 4542,
      "spring": 4543,
      "closed": 4544,
      "document": 4545,
      "Florida": 4546,
      "Ke": 4547,
      "Wil": 4548,
      "bac": 4549,
      "cip": 4550,
      "wins": 4551,
      "ensure": 4552,
      "speech": 4553,
      "subsequ": 4554,
      "studies": 4555,
      "depends": 4556,
      "schools": 4557,
      "magnet": 4558,
      "divided": 4559,
      "atoes": 4560,
      "datab": 4561,
      "deliver": 4562,
      "mobile": 4563,
      "37": 4564,
      "57": 4565,
      "CC": 4566,
      "Cal": 4567,
      "ES": 4568,
      "Four": 4569,
      "Jose": 4570,
      "Sat": 4571,
      "hockey": 4572,
      "psy": 4573,
      "sched": 4574,
      "onto": 4575,
      "motion": 4576,
      "Street": 4577,
      "ously": 4578,
      "Nether": 4579,
      "Johnson": 4580,
      "micro": 4581,
      "(/": 4582,
      "Bur": 4583,
      "Div": 4584,
      "FI": 4585,
      "fly": 4586,
      "atom": 4587,
      "aspect": 4588,
      "iles": 4589,
      "dete": 4590,
      "degrees": 4591,
      "annual": 4592,
      "YouTube": 4593,
      "metal": 4594,
      "separate": 4595,
      "Lo": 4596,
      "cards": 4597,
      "ician": 4598,
      "icks": 4599,
      "anti": 4600,
      "iano": 4601,
      "singles": 4602,
      "eastern": 4603,
      "Switzer": 4604,
      "effective": 4605,
      "response": 4606,
      "Valley": 4607,
      "tools": 4608,
      "General": 4609,
      "300": 4610,
      "Bul": 4611,
      "Both": 4612,
      "Den": 4613,
      "Fam": 4614,
      "Ko": 4615,
      "Law": 4616,
      "VID": 4617,
      "nd": 4618,
      "pal": 4619,
      "society": 4620,
      "chicken": 4621,
      "iring": 4622,
      "driving": 4623,
      "intended": 4624,
      "elected": 4625,
      "regul": 4626,
      "diet": 4627,
      "matches": 4628,
      "Bet": 4629,
      "Ly": 4630,
      "Pers": 4631,
      "ping": 4632,
      "demand": 4633,
      "mental": 4634,
      "serving": 4635,
      "visual": 4636,
      "powerful": 4637,
      "Swed": 4638,
      "score": 4639,
      "reported": 4640,
      "pieces": 4641,
      "sweet": 4642,
      "Taylor": 4643,
      "Switzerland": 4644,
      "ML": 4645,
      "fing": 4646,
      "han": 4647,
      "edition": 4648,
      "franch": 4649,
      "perfect": 4650,
      "loy": 4651,
      "Also": 4652,
      "choose": 4653,
      "Prize": 4654,
      "weeks": 4655,
      "historical": 4656,
      "screen": 4657,
      "algorith": 4658,
      "ki": 4659,
      "wife": 4660,
      "institut": 4661,
      "ales": 4662,
      "adap": 4663,
      "probab": 4664,
      "peak": 4665,
      "berg": 4666,
      "auto": 4667,
      "carbon": 4668,
      "distinct": 4669,
      "Islands": 4670,
      "plane": 4671,
      "receive": 4672,
      "issue": 4673,
      "Summer": 4674,
      "Netherlands": 4675,
      "55": 4676,
      "Found": 4677,
      "Jord": 4678,
      "Java": 4679,
      "Out": 4680,
      "Rome": 4681,
      "reli": 4682,
      "article": 4683,
      "expected": 4684,
      "policy": 4685,
      "cultural": 4686,
      "adesh": 4687,
      "Two": 4688,
      "championships": 4689,
      "COVID": 4690,
      "Bol": 4691,
      "Gover": 4692,
      "rd": 4693,
      "oute": 4694,
      "acts": 4695,
      "yourself": 4696,
      "longest": 4697,
      "continue": 4698,
      "easily": 4699,
      "undred": 4700,
      "defeated": 4701,
      "Queen": 4702,
      "Bowl": 4703,
      "necessary": 4704,
      "Middle": 4705,
      "Yes": 4706,
      "batt": 4707,
      "ocean": 4708,
      "touch": 4709,
      "instruct": 4710,
      "weap": 4711,
      "correct": 4712,
      "vote": 4713,
      "communication": 4714,
      "previously": 4715,
      "architecture": 4716,
      "firm": 4717,
      "Civil": 4718,
      "Ot": 4719,
      "Vol": 4720,
      "faster": 4721,
      "god": 4722,
      "rang": 4723,
      "vest": 4724,
      "write": 4725,
      "lets": 4726,
      "ctic": 4727,
      "ighter": 4728,
      "illing": 4729,
      "ipt": 4730,
      "grav": 4731,
      "aker": 4732,
      "raised": 4733,
      "offers": 4734,
      "1996": 4735,
      "medical": 4736,
      "Ford": 4737,
      "breed": 4738,
      "returned": 4739,
      "independent": 4740,
      "regarded": 4741,
      "earlier": 4742,
      "electronic": 4743,
      "Richard": 4744,
      "morning": 4745,
      "mathemat": 4746,
      "eth": 4747,
      "wise": 4748,
      "istance": 4749,
      "unk": 4750,
      "mosp": 4751,
      "artificial": 4752,
      "creation": 4753,
      "1992": 4754,
      "1993": 4755,
      "ario": 4756,
      "Record": 4757,
      "Northern": 4758,
      "director": 4759,
      "Canadian": 4760,
      "Swift": 4761,
      "termine": 4762,
      "basic": 4763,
      "install": 4764,
      "Olympics": 4765,
      "oppon": 4766,
      "fifth": 4767,
      "Er": 4768,
      "Mat": 4769,
      "Net": 4770,
      "lat": 4771,
      "section": 4772,
      "istry": 4773,
      "Common": 4774,
      "aska": 4775,
      "vehicles": 4776,
      "Hel": 4777,
      "Mach": 4778,
      "Sup": 4779,
      "fuel": 4780,
      "girl": 4781,
      "rat": 4782,
      "ti": 4783,
      "thr": 4784,
      "heav": 4785,
      "comfort": 4786,
      "pron": 4787,
      "maxim": 4788,
      "web": 4789,
      "Under": 4790,
      "mostly": 4791,
      "ensus": 4792,
      "Army": 4793,
      "1980s": 4794,
      "stein": 4795,
      "believe": 4796,
      "\")": 4797,
      "39": 4798,
      "ER": 4799,
      "GP": 4800,
      "Nint": 4801,
      "Tamil": 4802,
      "fine": 4803,
      "nine": 4804,
      "ode": 4805,
      "utr": 4806,
      "ady": 4807,
      "cohol": 4808,
      "iption": 4809,
      "driver": 4810,
      "Ariz": 4811,
      "athon": 4812,
      "winner": 4813,
      "critic": 4814,
      "division": 4815,
      "battery": 4816,
      "invented": 4817,
      "believed": 4818,
      "Jordan": 4819,
      "AM": 4820,
      "Ken": 4821,
      "Viet": 4822,
      "gal": 4823,
      "gate": 4824,
      "rub": 4825,
      "moon": 4826,
      "acting": 4827,
      "output": 4828,
      "stra": 4829,
      "doors": 4830,
      "Chris": 4831,
      "greater": 4832,
      "carry": 4833,
      "1995": 4834,
      "1983": 4835,
      "Manchester": 4836,
      "Nintendo": 4837,
      "Good": 4838,
      "gave": 4839,
      "hop": 4840,
      "iation": 4841,
      "pil": 4842,
      "push": 4843,
      "tall": 4844,
      "yani": 4845,
      "chair": 4846,
      "resort": 4847,
      "aval": 4848,
      "brain": 4849,
      "igned": 4850,
      "uster": 4851,
      "hardware": 4852,
      "retirement": 4853,
      "Base": 4854,
      "Gl": 4855,
      "Jim": 4856,
      "Ron": 4857,
      "bes": 4858,
      "gun": 4859,
      "ugh": 4860,
      "index": 4861,
      "atmosp": 4862,
      "etic": 4863,
      "attention": 4864,
      "listen": 4865,
      "banks": 4866,
      "hole": 4867,
      "NATO": 4868,
      "...": 4869,
      "piece": 4870,
      "applied": 4871,
      "favorite": 4872,
      "Louis": 4873,
      "Distr": 4874,
      "Rol": 4875,
      "nomin": 4876,
      "youn": 4877,
      "bey": 4878,
      "older": 4879,
      "hair": 4880,
      "aka": 4881,
      "ologies": 4882,
      "scored": 4883,
      "occurs": 4884,
      "Office": 4885,
      "neighbor": 4886,
      "customer": 4887,
      "Vietnam": 4888,
      "Av": 4889,
      "Di": 4890,
      "Far": 4891,
      "Games": 4892,
      "Ret": 4893,
      "pizza": 4894,
      "repe": 4895,
      "oles": 4896,
      "unch": 4897,
      "mod": 4898,
      "ibr": 4899,
      "formal": 4900,
      "indic": 4901,
      "awards": 4902,
      "servation": 4903,
      "1980": 4904,
      "memory": 4905,
      "helped": 4906,
      "turned": 4907,
      "egg": 4908,
      "devices": 4909,
      "Henry": 4910,
      "FC": 4911,
      "Rob": 4912,
      "Spr": 4913,
      "brown": 4914,
      "fi": 4915,
      "giving": 4916,
      "amin": 4917,
      "exact": 4918,
      "achuse": 4919,
      "feed": 4920,
      "spin": 4921,
      "spent": 4922,
      "Church": 4923,
      "address": 4924,
      "Olympic": 4925,
      "employees": 4926,
      "achuset": 4927,
      ");": 4928,
      "77": 4929,
      "Die": 4930,
      "Men": 4931,
      "Masters": 4932,
      "Py": 4933,
      "acid": 4934,
      "chief": 4935,
      "tempor": 4936,
      "instruments": 4937,
      "claimed": 4938,
      "behavior": 4939,
      "safety": 4940,
      "Sa": 4941,
      "Sand": 4942,
      "bud": 4943,
      "battle": 4944,
      "iately": 4945,
      "mouth": 4946,
      "rum": 4947,
      "ride": 4948,
      "isions": 4949,
      "expect": 4950,
      "actor": 4951,
      "drink": 4952,
      "1984": 4953,
      "everyone": 4954,
      "questions": 4955,
      "Cricket": 4956,
      "Strat": 4957,
      "baby": 4958,
      "powers": 4959,
      "Virginia": 4960,
      "Massachuset": 4961,
      "Arizona": 4962,
      "->": 4963,
      "Fall": 4964,
      "Tit": 4965,
      "gross": 4966,
      "link": 4967,
      "ala": 4968,
      "iced": 4969,
      "height": 4970,
      "composed": 4971,
      "ipal": 4972,
      "ounds": 4973,
      "discovered": 4974,
      "definition": 4975,
      "existing": 4976,
      "initial": 4977,
      "steps": 4978,
      "female": 4979,
      "sauce": 4980,
      "Massachusetts": 4981,
      ",\"": 4982,
      "AD": 4983,
      "Bro": 4984,
      "Nad": 4985,
      "thous": 4986,
      "stars": 4987,
      "compr": 4988,
      "evidence": 4989,
      "hero": 4990,
      "Russian": 4991,
      "vehicle": 4992,
      "vegetables": 4993,
      "efficient": 4994,
      "probably": 4995,
      "Ham": 4996,
      "Lam": 4997,
      "Mem": 4998,
      "Wars": 4999,
      "rent": 5000,
      "spl": 5001,
      "arrow": 5002,
      "accompl": 5003,
      "unit": 5004,
      "ocks": 5005,
      "occup": 5006,
      "lowing": 5007,
      "creating": 5008,
      "providing": 5009,
      "choice": 5010,
      "allowing": 5011,
      "laws": 5012,
      "programs": 5013,
      "distribution": 5014,
      "machines": 5015,
      "damage": 5016,
      "liquid": 5017,
      "IT": 5018,
      "Sil": 5019,
      "rout": 5020,
      "vin": 5021,
      "aran": 5022,
      "iling": 5023,
      "vey": 5024,
      "cream": 5025,
      "discovery": 5026,
      "processes": 5027,
      "Engine": 5028,
      "tuning": 5029,
      "Bab": 5030,
      "VP": 5031,
      "Vene": 5032,
      "sense": 5033,
      "quer": 5034,
      "follows": 5035,
      "anned": 5036,
      "currency": 5037,
      "venture": 5038,
      "opening": 5039,
      "Swiss": 5040,
      "cells": 5041,
      "Series": 5042,
      "Scott": 5043,
      "AC": 5044,
      "Ir": 5045,
      "Last": 5046,
      "Museum": 5047,
      "fair": 5048,
      "rare": 5049,
      "woman": 5050,
      "edge": 5051,
      "tea": 5052,
      "determine": 5053,
      "gets": 5054,
      "himself": 5055,
      "Book": 5056,
      "Mont": 5057,
      "nutr": 5058,
      "biggest": 5059,
      "application": 5060,
      "customers": 5061,
      "summary": 5062,
      "Harr": 5063,
      "Mount": 5064,
      "jun": 5065,
      "zz": 5066,
      "replaced": 5067,
      "aces": 5068,
      "tru": 5069,
      "cles": 5070,
      "grew": 5071,
      "obtain": 5072,
      "serves": 5073,
      "foreign": 5074,
      "classes": 5075,
      "operation": 5076,
      "territory": 5077,
      "swimming": 5078,
      "Internet": 5079,
      "BS": 5080,
      "Jes": 5081,
      "Lord": 5082,
      "gins": 5083,
      "sus": 5084,
      "atives": 5085,
      "ora": 5086,
      "icon": 5087,
      "ils": 5088,
      "prop": 5089,
      "earch": 5090,
      "owner": 5091,
      "Then": 5092,
      "brought": 5093,
      "ships": 5094,
      "1988": 5095,
      "sett": 5096,
      "brew": 5097,
      "decided": 5098,
      "connected": 5099,
      "ibuted": 5100,
      "racing": 5101,
      "bottom": 5102,
      "kilomet": 5103,
      "bicycle": 5104,
      "42": 5105,
      "museum": 5106,
      "alle": 5107,
      "chess": 5108,
      "demon": 5109,
      "universe": 5110,
      "context": 5111,
      "confl": 5112,
      "true": 5113,
      "symp": 5114,
      "starts": 5115,
      "Space": 5116,
      "graphic": 5117,
      "Organ": 5118,
      "Court": 5119,
      "Center": 5120,
      "Ire": 5121,
      "ky": 5122,
      "alone": 5123,
      "toms": 5124,
      "ultim": 5125,
      "artists": 5126,
      "cooking": 5127,
      "eff": 5128,
      "tainment": 5129,
      "lock": 5130,
      "locations": 5131,
      "networks": 5132,
      "classical": 5133,
      "buildings": 5134,
      "initially": 5135,
      "Greece": 5136,
      "earliest": 5137,
      "Venez": 5138,
      "IP": 5139,
      "Love": 5140,
      "ds": 5141,
      "fro": 5142,
      "pha": 5143,
      "sch": 5144,
      "lec": 5145,
      "apple": 5146,
      "Institute": 5147,
      "covers": 5148,
      "Stud": 5149,
      "parks": 5150,
      "rane": 5151,
      "Joe": 5152,
      "normal": 5153,
      "Road": 5154,
      "equal": 5155,
      "explor": 5156,
      "quarters": 5157,
      "Despite": 5158,
      "featured": 5159,
      "Royal": 5160,
      "Ireland": 5161,
      "68": 5162,
      "Bell": 5163,
      "Hill": 5164,
      "Light": 5165,
      "Tim": 5166,
      "Uber": 5167,
      "mort": 5168,
      "encing": 5169,
      "amber": 5170,
      "champion": 5171,
      "modif": 5172,
      "illa": 5173,
      "fields": 5174,
      "boards": 5175,
      "citation": 5176,
      "Georgia": 5177,
      "33": 5178,
      "Bir": 5179,
      "Jeff": 5180,
      "MS": 5181,
      "Warr": 5182,
      "dough": 5183,
      "native": 5184,
      "oon": 5185,
      "paid": 5186,
      "yet": 5187,
      "zone": 5188,
      "input": 5189,
      "leave": 5190,
      "urance": 5191,
      "ody": 5192,
      "1985": 5193,
      "request": 5194,
      "1965": 5195,
      "standing": 5196,
      "km2": 5197,
      "paint": 5198,
      "consumption": 5199,
      "extremely": 5200,
      "Democratic": 5201,
      "Venezuel": 5202,
      "67": 5203,
      "Bob": 5204,
      "Du": 5205,
      "Pop": 5206,
      "master": 5207,
      "pine": 5208,
      "ses": 5209,
      "sort": 5210,
      "uters": 5211,
      "yle": 5212,
      "infr": 5213,
      "concl": 5214,
      "plastic": 5215,
      "Inc": 5216,
      "ulture": 5217,
      "promin": 5218,
      "brother": 5219,
      "motor": 5220,
      "appearance": 5221,
      "Additionally": 5222,
      "Hawaii": 5223,
      "Records": 5224,
      "District": 5225,
      "Beng": 5226,
      "Brown": 5227,
      "Every": 5228,
      "Sub": 5229,
      "lived": 5230,
      "py": 5231,
      "rul": 5232,
      "tics": 5233,
      "trop": 5234,
      "alcohol": 5235,
      "ione": 5236,
      "acade": 5237,
      "beat": 5238,
      "Their": 5239,
      "affic": 5240,
      "angerous": 5241,
      "icted": 5242,
      "capac": 5243,
      "typical": 5244,
      "transl": 5245,
      "pression": 5246,
      "continent": 5247,
      "switch": 5248,
      "citiz": 5249,
      "independence": 5250,
      "literature": 5251,
      "thesis": 5252,
      "Carolina": 5253,
      "47": 5254,
      "400": 5255,
      "Ball": 5256,
      "Glo": 5257,
      "Make": 5258,
      "Sir": 5259,
      "review": 5260,
      "orange": 5261,
      "stress": 5262,
      "secret": 5263,
      "depart": 5264,
      "becomes": 5265,
      "igan": 5266,
      "verse": 5267,
      "excl": 5268,
      "goes": 5269,
      "Develop": 5270,
      "studied": 5271,
      "basis": 5272,
      "Federal": 5273,
      "frequently": 5274,
      "Premier": 5275,
      "Electric": 5276,
      "candid": 5277,
      "married": 5278,
      "franchise": 5279,
      "89": 5280,
      "Battle": 5281,
      "NSA": 5282,
      "catch": 5283,
      "sav": 5284,
      "isl": 5285,
      "twice": 5286,
      "oga": 5287,
      "centuries": 5288,
      "Argent": 5289,
      "mainly": 5290,
      "athlet": 5291,
      "setting": 5292,
      "contrast": 5293,
      "styles": 5294,
      "achieved": 5295,
      "eyes": 5296,
      "spoken": 5297,
      "moment": 5298,
      "appointed": 5299,
      "database": 5300,
      "Ob": 5301,
      "Wall": 5302,
      "ault": 5303,
      "bill": 5304,
      "sq": 5305,
      "anda": 5306,
      "ites": 5307,
      "spot": 5308,
      "pher": 5309,
      "180": 5310,
      "1990s": 5311,
      "ugg": 5312,
      "Prince": 5313,
      "Council": 5314,
      "sequence": 5315,
      "transportation": 5316,
      "symbol": 5317,
      "Hal": 5318,
      "Kr": 5319,
      "Mot": 5320,
      "Pel": 5321,
      "burn": 5322,
      "wich": 5323,
      "rey": 5324,
      "whom": 5325,
      "iron": 5326,
      "traffic": 5327,
      "cru": 5328,
      "phere": 5329,
      "carr": 5330,
      "increases": 5331,
      "classified": 5332,
      "manufacturing": 5333,
      "understanding": 5334,
      "experiment": 5335,
      "Following": 5336,
      "garden": 5337,
      "Hot": 5338,
      "More": 5339,
      "Sof": 5340,
      "Squ": 5341,
      "jump": 5342,
      "pa": 5343,
      "route": 5344,
      "beans": 5345,
      "conse": 5346,
      "Form": 5347,
      "charged": 5348,
      "Real": 5349,
      "popularity": 5350,
      "Adams": 5351,
      "dynam": 5352,
      "reedom": 5353,
      "immediately": 5354,
      "Jones": 5355,
      "Toy": 5356,
      "phas": 5357,
      "wish": 5358,
      "orial": 5359,
      "icated": 5360,
      "street": 5361,
      "roles": 5362,
      "oph": 5363,
      "coin": 5364,
      "aircraft": 5365,
      "medium": 5366,
      "1986": 5367,
      "1987": 5368,
      "goods": 5369,
      "values": 5370,
      "Plan": 5371,
      "hands": 5372,
      "orders": 5373,
      "balance": 5374,
      "clubs": 5375,
      "collection": 5376,
      "phenomen": 5377,
      "dominant": 5378,
      "recommend": 5379,
      "aughter": 5380,
      "66": 5381,
      "Hun": 5382,
      "Long": 5383,
      "Tem": 5384,
      "bio": 5385,
      "killed": 5386,
      "mas": 5387,
      "wan": 5388,
      "insp": 5389,
      "ingu": 5390,
      "stro": 5391,
      "ador": 5392,
      "adop": 5393,
      "Stan": 5394,
      "disci": 5395,
      "relatively": 5396,
      "1977": 5397,
      "150": 5398,
      "expans": 5399,
      "Max": 5400,
      "defense": 5401,
      "reduced": 5402,
      "rooms": 5403,
      "vacation": 5404,
      "strategy": 5405,
      "Fort": 5406,
      "Golf": 5407,
      "Pen": 5408,
      "Run": 5409,
      "Tod": 5410,
      "eating": 5411,
      "ancy": 5412,
      "olic": 5413,
      "ads": 5414,
      "pep": 5415,
      "affe": 5416,
      "drug": 5417,
      "brief": 5418,
      "identify": 5419,
      "1981": 5420,
      "stands": 5421,
      "Britain": 5422,
      "III": 5423,
      "trying": 5424,
      "manager": 5425,
      "benefit": 5426,
      "recognized": 5427,
      "launch": 5428,
      "credit": 5429,
      "acquired": 5430,
      "alternative": 5431,
      "Alexander": 5432,
      "inflation": 5433,
      "Division": 5434,
      "Mur": 5435,
      "MVP": 5436,
      "Spark": 5437,
      "hundred": 5438,
      "agre": 5439,
      "resol": 5440,
      "liament": 5441,
      "Three": 5442,
      "letter": 5443,
      "identified": 5444,
      "Asian": 5445,
      "breath": 5446,
      "1979": 5447,
      "largely": 5448,
      "appropr": 5449,
      "weights": 5450,
      "presidential": 5451,
      "represented": 5452,
      "victory": 5453,
      "families": 5454,
      "Baseball": 5455,
      "Ban": 5456,
      "Bor": 5457,
      "Bas": 5458,
      "Mel": 5459,
      "Nat": 5460,
      "Pu": 5461,
      "Rog": 5462,
      "jack": 5463,
      "itz": 5464,
      "neutr": 5465,
      "parame": 5466,
      "attended": 5467,
      "presents": 5468,
      "Leg": 5469,
      "asked": 5470,
      "doesn": 5471,
      "decades": 5472,
      "Finals": 5473,
      "recognition": 5474,
      "Film": 5475,
      "Cat": 5476,
      "Cub": 5477,
      "Hem": 5478,
      "Luc": 5479,
      "Nep": 5480,
      "Oper": 5481,
      "Public": 5482,
      "cod": 5483,
      "dim": 5484,
      "mac": 5485,
      "oe": 5486,
      "pto": 5487,
      "wr": 5488,
      "inno": 5489,
      "isms": 5490,
      "accur": 5491,
      "chance": 5492,
      "neural": 5493,
      "shar": 5494,
      "cris": 5495,
      "aug": 5496,
      "1975": 5497,
      "signal": 5498,
      "Indiana": 5499,
      "azz": 5500,
      "advanced": 5501,
      "wanted": 5502,
      "joint": 5503,
      "limit": 5504,
      "suffer": 5505,
      "Joseph": 5506,
      "straight": 5507,
      "Cre": 5508,
      "Kenn": 5509,
      "Lit": 5510,
      "Night": 5511,
      "Oh": 5512,
      "Tenn": 5513,
      "Your": 5514,
      "cin": 5515,
      "gained": 5516,
      "var": 5517,
      "thon": 5518,
      "inch": 5519,
      "stick": 5520,
      "ager": 5521,
      "acted": 5522,
      "bles": 5523,
      "borne": 5524,
      "generated": 5525,
      "extra": 5526,
      "1970": 5527,
      "lightly": 5528,
      "1969": 5529,
      "Color": 5530,
      "wheel": 5531,
      "nearby": 5532,
      "walking": 5533,
      "occurred": 5534,
      "Research": 5535,
      "declared": 5536,
      "purchase": 5537,
      "juice": 5538,
      "kilometres": 5539,
      "Age": 5540,
      "Eli": 5541,
      "UE": 5542,
      "diverse": 5543,
      "fare": 5544,
      "nations": 5545,
      "sail": 5546,
      "church": 5547,
      "parent": 5548,
      "Americans": 5549,
      "finish": 5550,
      "explain": 5551,
      "industrial": 5552,
      "Techn": 5553,
      "projects": 5554,
      "skiing": 5555,
      "requirements": 5556,
      "dishes": 5557,
      "executive": 5558,
      "fantasy": 5559,
      "journal": 5560,
      "floor": 5561,
      "ranean": 5562,
      "88": 5563,
      "Ill": 5564,
      "Pak": 5565,
      "hur": 5566,
      "mut": 5567,
      "sides": 5568,
      "anth": 5569,
      "imal": 5570,
      "ctors": 5571,
      "units": 5572,
      "constant": 5573,
      "ocol": 5574,
      "occas": 5575,
      "outs": 5576,
      "poor": 5577,
      "complet": 5578,
      "derived": 5579,
      "pret": 5580,
      "discuss": 5581,
      "collabor": 5582,
      "rowing": 5583,
      "ranking": 5584,
      "hydr": 5585,
      "rones": 5586,
      "cultures": 5587,
      "influential": 5588,
      "happy": 5589,
      "figure": 5590,
      "dollar": 5591,
      "Beach": 5592,
      "Ku": 5593,
      "Ra": 5594,
      "Society": 5595,
      "encour": 5596,
      "omics": 5597,
      "entially": 5598,
      "acc": 5599,
      "amoun": 5600,
      "eties": 5601,
      "prime": 5602,
      "earned": 5603,
      "webs": 5604,
      "flour": 5605,
      "Alaska": 5606,
      "minister": 5607,
      "lax": 5608,
      "cert": 5609,
      "leaders": 5610,
      "leadership": 5611,
      "solve": 5612,
      "planets": 5613,
      "bikes": 5614,
      "particles": 5615,
      "advance": 5616,
      "Finally": 5617,
      "iterranean": 5618,
      "effici": 5619,
      "circuit": 5620,
      "Bern": 5621,
      "Dev": 5622,
      "Fer": 5623,
      "Vi": 5624,
      "dangerous": 5625,
      "ko": 5626,
      "ni": 5627,
      "pg": 5628,
      "yo": 5629,
      "yer": 5630,
      "ano": 5631,
      "deploy": 5632,
      "bean": 5633,
      "iders": 5634,
      "conce": 5635,
      "grapes": 5636,
      "computers": 5637,
      "aware": 5638,
      "finals": 5639,
      "engers": 5640,
      "reading": 5641,
      "scen": 5642,
      "presented": 5643,
      "Coast": 5644,
      "volume": 5645,
      "involves": 5646,
      "Corpor": 5647,
      "taste": 5648,
      "Player": 5649,
      "encies": 5650,
      "Kong": 5651,
      "Navy": 5652,
      "gives": 5653,
      "nice": 5654,
      "ygen": 5655,
      "bear": 5656,
      "aped": 5657,
      "utions": 5658,
      "sust": 5659,
      "shown": 5660,
      "Cont": 5661,
      "partner": 5662,
      "Model": 5663,
      "Peter": 5664,
      "combined": 5665,
      "costs": 5666,
      "Donald": 5667,
      "Berlin": 5668,
      "birds": 5669,
      "rupt": 5670,
      "respectively": 5671,
      "restaurants": 5672,
      "Senate": 5673,
      "couple": 5674,
      "consecutive": 5675,
      "GDP": 5676,
      "Ox": 5677,
      "adel": 5678,
      "mart": 5679,
      "zen": 5680,
      "stated": 5681,
      "hai": 5682,
      "lose": 5683,
      "poll": 5684,
      "recording": 5685,
      "politan": 5686,
      "Origin": 5687,
      "feeling": 5688,
      "attacks": 5689,
      "episodes": 5690,
      "religious": 5691,
      "Science": 5692,
      "incorporated": 5693,
      "Cy": 5694,
      "LA": 5695,
      "Oreg": 5696,
      "dance": 5697,
      "dream": 5698,
      "mers": 5699,
      "arms": 5700,
      "email": 5701,
      "outdoor": 5702,
      "cancer": 5703,
      "poly": 5704,
      "izon": 5705,
      "enses": 5706,
      "ensity": 5707,
      "minute": 5708,
      "extensive": 5709,
      "functions": 5710,
      "technique": 5711,
      "scul": 5712,
      "easier": 5713,
      "grown": 5714,
      "structures": 5715,
      "marketing": 5716,
      "calcul": 5717,
      "status": 5718,
      "sandwich": 5719,
      "double": 5720,
      "capacity": 5721,
      "UEFA": 5722,
      "\":": 5723,
      "Born": 5724,
      "Cath": 5725,
      "Fore": 5726,
      "NCA": 5727,
      "Revolution": 5728,
      "Ven": 5729,
      "Vict": 5730,
      "ror": 5731,
      "uce": 5732,
      "inations": 5733,
      "recip": 5734,
      "asp": 5735,
      "igen": 5736,
      "una": 5737,
      "proto": 5738,
      "therap": 5739,
      "Increase": 5740,
      "cloth": 5741,
      "assum": 5742,
      "despite": 5743,
      "produces": 5744,
      "whereas": 5745,
      "1973": 5746,
      "1960": 5747,
      "planning": 5748,
      "organizations": 5749,
      "Expl": 5750,
      "selected": 5751,
      "situation": 5752,
      "CEO": 5753,
      "Department": 5754,
      "LLMs": 5755,
      "ucture": 5756,
      "Modern": 5757,
      "tropical": 5758,
      "Oregon": 5759,
      "):": 5760,
      "62": 5761,
      "UN": 5762,
      "fle": 5763,
      "jpg": 5764,
      "mile": 5765,
      "seem": 5766,
      "begins": 5767,
      "image": 5768,
      "adjust": 5769,
      "urally": 5770,
      "agric": 5771,
      "earning": 5772,
      "phia": 5773,
      "flavor": 5774,
      "positions": 5775,
      "Force": 5776,
      "1974": 5777,
      "student": 5778,
      "marked": 5779,
      "boarding": 5780,
      "connection": 5781,
      "involve": 5782,
      "recommended": 5783,
      "episode": 5784,
      "Korea": 5785,
      "split": 5786,
      "97": 5787,
      "Rom": 5788,
      "Rus": 5789,
      "Take": 5790,
      "UC": 5791,
      "Uk": 5792,
      "Way": 5793,
      "map": 5794,
      "rig": 5795,
      "argu": 5796,
      "assem": 5797,
      "cher": 5798,
      "beth": 5799,
      "prob": 5800,
      "prem": 5801,
      "Through": 5802,
      "genre": 5803,
      "workers": 5804,
      "1982": 5805,
      "Prime": 5806,
      "structed": 5807,
      "1964": 5808,
      "1947": 5809,
      "Austria": 5810,
      "woodwind": 5811,
      "magn": 5812,
      "engineer": 5813,
      "Major": 5814,
      "hotel": 5815,
      "Minister": 5816,
      "zero": 5817,
      "Philadel": 5818,
      "Mediterranean": 5819,
      "territories": 5820,
      "mixed": 5821,
      "nickn": 5822,
      "suffic": 5823,
      "psych": 5824,
      "beyond": 5825,
      "Philadelphia": 5826,
      ".”": 5827,
      "Fur": 5828,
      "Na": 5829,
      "Row": 5830,
      "inner": 5831,
      "removed": 5832,
      "iled": 5833,
      "ropolitan": 5834,
      "cts": 5835,
      "ulated": 5836,
      "molec": 5837,
      "plate": 5838,
      "shop": 5839,
      "ibly": 5840,
      "speaking": 5841,
      "miner": 5842,
      "condition": 5843,
      "command": 5844,
      "generate": 5845,
      "1963": 5846,
      "technologies": 5847,
      "biological": 5848,
      "characteristics": 5849,
      "mountains": 5850,
      "eye": 5851,
      "completely": 5852,
      "aspects": 5853,
      "institutions": 5854,
      "weapons": 5855,
      "discipl": 5856,
      "website": 5857,
      "GA": 5858,
      "Gi": 5859,
      "Mid": 5860,
      "Now": 5861,
      "Rad": 5862,
      "Times": 5863,
      "yes": 5864,
      "zo": 5865,
      "thi": 5866,
      "atre": 5867,
      "libr": 5868,
      "flag": 5869,
      "therefore": 5870,
      "passing": 5871,
      "Produ": 5872,
      "politician": 5873,
      "sites": 5874,
      "accounts": 5875,
      "houses": 5876,
      "minimum": 5877,
      "Little": 5878,
      "amounts": 5879,
      "52": 5880,
      "Les": 5881,
      "Let": 5882,
      "Like": 5883,
      "PS": 5884,
      "RO": 5885,
      "Saint": 5886,
      "Tok": 5887,
      "gather": 5888,
      "kid": 5889,
      "ru": 5890,
      "sed": 5891,
      "orbit": 5892,
      "ampl": 5893,
      "forced": 5894,
      "plom": 5895,
      "pean": 5896,
      "drivers": 5897,
      "osis": 5898,
      "Trans": 5899,
      "professor": 5900,
      "remained": 5901,
      "broken": 5902,
      "climbing": 5903,
      "biryani": 5904,
      "Championships": 5905,
      "Area": 5906,
      "PayPal": 5907,
      "expansion": 5908,
      "NCAA": 5909,
      "44": 5910,
      "85": 5911,
      "Bon": 5912,
      "Ever": 5913,
      "Top": 5914,
      "bath": 5915,
      "hill": 5916,
      "pul": 5917,
      "reve": 5918,
      "pete": 5919,
      "perman": 5920,
      "prices": 5921,
      "observed": 5922,
      "effort": 5923,
      "soil": 5924,
      "attach": 5925,
      "pursu": 5926,
      "banking": 5927,
      "holiday": 5928,
      "reaching": 5929,
      "remaining": 5930,
      "destroy": 5931,
      "internet": 5932,
      "meeting": 5933,
      "Turkey": 5934,
      "Sweden": 5935,
      "Otto": 5936,
      "accomplish": 5937,
      "symptoms": 5938,
      "appropriate": 5939,
      "Hur": 5940,
      "Jr": 5941,
      "Jud": 5942,
      "Land": 5943,
      "Life": 5944,
      "Miam": 5945,
      "Penn": 5946,
      "fash": 5947,
      "hall": 5948,
      "pict": 5949,
      "yl": 5950,
      "theore": 5951,
      "sex": 5952,
      "compete": 5953,
      "otes": 5954,
      "proposed": 5955,
      "kept": 5956,
      "medic": 5957,
      "skin": 5958,
      "ission": 5959,
      "Commun": 5960,
      "studio": 5961,
      "organized": 5962,
      "bodies": 5963,
      "1945": 5964,
      "azine": 5965,
      "Finland": 5966,
      "faces": 5967,
      "Belg": 5968,
      "internal": 5969,
      "recently": 5970,
      "revolution": 5971,
      "(\"": 5972,
      "AN": 5973,
      "Dire": 5974,
      "Hou": 5975,
      "Snow": 5976,
      "Santa": 5977,
      "Ve": 5978,
      "bly": 5979,
      "dial": 5980,
      "eper": 5981,
      "wed": 5982,
      "zy": 5983,
      "relax": 5984,
      "stret": 5985,
      "agement": 5986,
      "convent": 5987,
      "mote": 5988,
      "span": 5989,
      "enger": 5990,
      "1970s": 5991,
      "solution": 5992,
      "originated": 5993,
      "competitive": 5994,
      "fishing": 5995,
      "bands": 5996,
      "bowl": 5997,
      "astructure": 5998,
      "fixed": 5999,
      "FIFA": 6000,
      "Stratoc": 6001,
      "Argentina": 6002,
      "Miami": 6003,
      "54": 6004,
      "Cast": 6005,
      "Iran": 6006,
      "Tra": 6007,
      "fans": 6008,
      "fict": 6009,
      "latter": 6010,
      "rene": 6011,
      "icing": 6012,
      "amaz": 6013,
      "usage": 6014,
      "plot": 6015,
      "iller": 6016,
      "strateg": 6017,
      "phr": 6018,
      "brands": 6019,
      "finally": 6020,
      "poses": 6021,
      "developing": 6022,
      "Mars": 6023,
      "1972": 6024,
      "1968": 6025,
      "factor": 6026,
      "metres": 6027,
      "everything": 6028,
      "explo": 6029,
      "supported": 6030,
      "Service": 6031,
      "raine": 6032,
      "fastest": 6033,
      "taxes": 6034,
      "learned": 6035,
      "significantly": 6036,
      "honor": 6037,
      "details": 6038,
      "manufacturer": 6039,
      "ught": 6040,
      "ocolate": 6041,
      "92": 6042,
      "Boy": 6043,
      "Link": 6044,
      "Tre": 6045,
      "die": 6046,
      "daughter": 6047,
      "gers": 6048,
      "mes": 6049,
      "mir": 6050,
      "soci": 6051,
      "wing": 6052,
      "leaving": 6053,
      "chron": 6054,
      "imag": 6055,
      "1930": 6056,
      "shire": 6057,
      "ession": 6058,
      "exhib": 6059,
      "ipel": 6060,
      "weak": 6061,
      "boy": 6062,
      "Champions": 6063,
      "rael": 6064,
      "differences": 6065,
      "Beat": 6066,
      "temperatures": 6067,
      "sentiment": 6068,
      "conducted": 6069,
      "oxygen": 6070,
      "domesticated": 6071,
      "Smith": 6072,
      "schol": 6073,
      "Eliza": 6074,
      "Bre": 6075,
      "Home": 6076,
      "Mun": 6077,
      "ding": 6078,
      "emot": 6079,
      "fell": 6080,
      "ania": 6081,
      "assets": 6082,
      "seat": 6083,
      "vell": 6084,
      "advert": 6085,
      "constructed": 6086,
      "abin": 6087,
      "iana": 6088,
      "gene": 6089,
      "gency": 6090,
      "Next": 6091,
      "Altern": 6092,
      "ancing": 6093,
      "technical": 6094,
      "dependent": 6095,
      "stores": 6096,
      "stored": 6097,
      "appears": 6098,
      "Syd": 6099,
      "idden": 6100,
      "properties": 6101,
      "offered": 6102,
      "streaming": 6103,
      "prepared": 6104,
      "Windows": 6105,
      "Govern": 6106,
      "Diego": 6107,
      "inspired": 6108,
      "Corporation": 6109,
      "sculpt": 6110,
      "3rd": 6111,
      "Hor": 6112,
      "Sl": 6113,
      "ders": 6114,
      "nast": 6115,
      "vic": 6116,
      "aters": 6117,
      "outheast": 6118,
      "itter": 6119,
      "itors": 6120,
      "stre": 6121,
      "shared": 6122,
      "essential": 6123,
      "Station": 6124,
      "Stone": 6125,
      "dram": 6126,
      "Arts": 6127,
      "Nobel": 6128,
      "fluid": 6129,
      "equival": 6130,
      "formerly": 6131,
      "entered": 6132,
      "tests": 6133,
      "Team": 6134,
      "consisting": 6135,
      "destination": 6136,
      "categories": 6137,
      "failed": 6138,
      "Jersey": 6139,
      "challenges": 6140,
      "opposite": 6141,
      "Python": 6142,
      "budget": 6143,
      "carried": 6144,
      "pepper": 6145,
      "dimens": 6146,
      "56": 6147,
      "Bad": 6148,
      "Back": 6149,
      "ET": 6150,
      "Econom": 6151,
      "Gard": 6152,
      "Hamil": 6153,
      "Lion": 6154,
      "Pass": 6155,
      "Treat": 6156,
      "Van": 6157,
      "iro": 6158,
      "lies": 6159,
      "isol": 6160,
      "tooth": 6161,
      "agues": 6162,
      "Indu": 6163,
      "shaped": 6164,
      "quite": 6165,
      "Start": 6166,
      "Thrones": 6167,
      "brid": 6168,
      "parties": 6169,
      "portion": 6170,
      "presence": 6171,
      "newsp": 6172,
      "writers": 6173,
      "Bron": 6174,
      "tourist": 6175,
      "falls": 6176,
      "mitted": 6177,
      "performing": 6178,
      "Moroc": 6179,
      "audience": 6180,
      "controlled": 6181,
      "History": 6182,
      "Portugal": 6183,
      "chemical": 6184,
      "Hamilton": 6185,
      "Aust": 6186,
      "Cro": 6187,
      "Def": 6188,
      "DNA": 6189,
      "Power": 6190,
      "ST": 6191,
      "Son": 6192,
      "ket": 6193,
      "oven": 6194,
      "inks": 6195,
      "orize": 6196,
      "aled": 6197,
      "stadium": 6198,
      "aya": 6199,
      "owners": 6200,
      "mond": 6201,
      "anything": 6202,
      "producing": 6203,
      "guide": 6204,
      "1971": 6205,
      "1960s": 6206,
      "apped": 6207,
      "1955": 6208,
      "flowers": 6209,
      "specifically": 6210,
      "scientists": 6211,
      "empire": 6212,
      "advantages": 6213,
      "expanded": 6214,
      "scoring": 6215,
      "adopted": 6216,
      "Today": 6217,
      "BI": 6218,
      "Even": 6219,
      "PC": 6220,
      "Pur": 6221,
      "Tar": 6222,
      "pic": 6223,
      "rivers": 6224,
      "wire": 6225,
      "stal": 6226,
      "ounce": 6227,
      "residents": 6228,
      "exchange": 6229,
      "poet": 6230,
      "Conference": 6231,
      "awn": 6232,
      "console": 6233,
      "buying": 6234,
      "visible": 6235,
      "skill": 6236,
      "extended": 6237,
      "Israel": 6238,
      "1940": 6239,
      "talk": 6240,
      "Steve": 6241,
      "layers": 6242,
      "sounds": 6243,
      "instructions": 6244,
      "probability": 6245,
      "Industr": 6246,
      "Get": 6247,
      "Jon": 6248,
      "Lakers": 6249,
      "Raj": 6250,
      "Sever": 6251,
      "Yellow": 6252,
      "iors": 6253,
      "remember": 6254,
      "aling": 6255,
      "ito": 6256,
      "stim": 6257,
      "chart": 6258,
      "uration": 6259,
      "excell": 6260,
      "perial": 6261,
      "notable": 6262,
      "pread": 6263,
      "angle": 6264,
      "producer": 6265,
      "regional": 6266,
      "Enter": 6267,
      "ologist": 6268,
      "annel": 6269,
      "cuis": 6270,
      "solo": 6271,
      "resulting": 6272,
      "reality": 6273,
      "element": 6274,
      "officer": 6275,
      "managed": 6276,
      "1939": 6277,
      "establish": 6278,
      "Wales": 6279,
      "inois": 6280,
      "populous": 6281,
      "quantum": 6282,
      "homes": 6283,
      "opportunity": 6284,
      "atmosphere": 6285,
      "Formula": 6286,
      "Illinois": 6287,
      "Basketball": 6288,
      "Call": 6289,
      "QL": 6290,
      "Tel": 6291,
      "cash": 6292,
      "fear": 6293,
      "fought": 6294,
      "gro": 6295,
      "lun": 6296,
      "pup": 6297,
      "ua": 6298,
      "uff": 6299,
      "va": 6300,
      "vs": 6301,
      "vard": 6302,
      "yard": 6303,
      "inci": 6304,
      "refr": 6305,
      "itage": 6306,
      "icial": 6307,
      "ila": 6308,
      "semi": 6309,
      "elly": 6310,
      "ours": 6311,
      "shore": 6312,
      "Cons": 6313,
      "preced": 6314,
      "Fran": 6315,
      "insurance": 6316,
      "transist": 6317,
      "apping": 6318,
      "legisl": 6319,
      "communities": 6320,
      "interests": 6321,
      "faced": 6322,
      "focused": 6323,
      "painting": 6324,
      "supervised": 6325,
      "novels": 6326,
      "gravity": 6327,
      "thousands": 6328,
      "conflict": 6329,
      "'.": 6330,
      "96": 6331,
      "BM": 6332,
      "Cel": 6333,
      "Hong": 6334,
      "Lie": 6335,
      "Nar": 6336,
      "kers": 6337,
      "rick": 6338,
      "retain": 6339,
      "arate": 6340,
      "rose": 6341,
      "bee": 6342,
      "irt": 6343,
      "else": 6344,
      "hail": 6345,
      "strings": 6346,
      "berries": 6347,
      "crete": 6348,
      "Health": 6349,
      "contest": 6350,
      "centre": 6351,
      "attend": 6352,
      "adding": 6353,
      "Security": 6354,
      "muscle": 6355,
      "distingu": 6356,
      "lights": 6357,
      "1966": 6358,
      "Columb": 6359,
      "investig": 6360,
      "investors": 6361,
      "testing": 6362,
      "belief": 6363,
      "measures": 6364,
      "measured": 6365,
      "corporate": 6366,
      "Billboard": 6367,
      "bacter": 6368,
      "Jesus": 6369,
      "Venezuela": 6370,
      "prominent": 6371,
      "Elizabeth": 6372,
      "Sydney": 6373,
      "95": 6374,
      "Dou": 6375,
      "Gra": 6376,
      "Ira": 6377,
      "Rel": 6378,
      "Test": 6379,
      "Tiger": 6380,
      "flex": 6381,
      "narrow": 6382,
      "wet": 6383,
      "wel": 6384,
      "orig": 6385,
      "staff": 6386,
      "seeds": 6387,
      "decade": 6388,
      "ira": 6389,
      "plans": 6390,
      "spending": 6391,
      "branch": 6392,
      "count": 6393,
      "flav": 6394,
      "obs": 6395,
      "minor": 6396,
      "Lee": 6397,
      "Norway": 6398,
      "continues": 6399,
      "decisions": 6400,
      "marize": 6401,
      "diplom": 6402,
      "Early": 6403,
      "videos": 6404,
      "Stephen": 6405,
      "hiking": 6406,
      "communications": 6407,
      "friendly": 6408,
      "capture": 6409,
      "Catholic": 6410,
      "CD": 6411,
      "Cir": 6412,
      "Gand": 6413,
      "Mr": 6414,
      "Nev": 6415,
      "Pin": 6416,
      "Sri": 6417,
      "Ur": 6418,
      "Using": 6419,
      "dress": 6420,
      "filled": 6421,
      "festival": 6422,
      "uss": 6423,
      "vul": 6424,
      "ining": 6425,
      "orb": 6426,
      "oral": 6427,
      "entity": 6428,
      "isters": 6429,
      "lywood": 6430,
      "forts": 6431,
      "ading": 6432,
      "planned": 6433,
      "opin": 6434,
      "trust": 6435,
      "ighth": 6436,
      "prise": 6437,
      "ups": 6438,
      "Chief": 6439,
      "ibute": 6440,
      "afford": 6441,
      "inton": 6442,
      "capable": 6443,
      "settle": 6444,
      "See": 6445,
      "Commission": 6446,
      "retired": 6447,
      "didn": 6448,
      "resulted": 6449,
      "cultiv": 6450,
      "Poland": 6451,
      "approaches": 6452,
      "shoes": 6453,
      "Scotland": 6454,
      "algorithm": 6455,
      "Colorado": 6456,
      "Pakistan": 6457,
      "Victor": 6458,
      "Eld": 6459,
      "Fre": 6460,
      "Hindu": 6461,
      "Ros": 6462,
      "Veg": 6463,
      "file": 6464,
      "ji": 6465,
      "jar": 6466,
      "rival": 6467,
      "inning": 6468,
      "remove": 6469,
      "remote": 6470,
      "leagues": 6471,
      "seed": 6472,
      "rob": 6473,
      "istical": 6474,
      "celer": 6475,
      "poem": 6476,
      "gear": 6477,
      "correspond": 6478,
      "display": 6479,
      "folk": 6480,
      "capabilities": 6481,
      "Colomb": 6482,
      "1959": 6483,
      "roads": 6484,
      "flower": 6485,
      "Apache": 6486,
      "weekend": 6487,
      "Captain": 6488,
      "mechanical": 6489,
      "Arabic": 6490,
      "fighting": 6491,
      "surrounding": 6492,
      "administration": 6493,
      "Budd": 6494,
      "Persian": 6495,
      "Further": 6496,
      "250": 6497,
      "86": 6498,
      "AR": 6499,
      "Bat": 6500,
      "Hind": 6501,
      "Set": 6502,
      "Sel": 6503,
      "Tal": 6504,
      "Wim": 6505,
      "gam": 6506,
      "pas": 6507,
      "rics": 6508,
      "thinking": 6509,
      "enab": 6510,
      "replac": 6511,
      "isto": 6512,
      "chocolate": 6513,
      "composition": 6514,
      "estyle": 6515,
      "clar": 6516,
      "creative": 6517,
      "drama": 6518,
      "ansas": 6519,
      "monitor": 6520,
      "Ann": 6521,
      "ickets": 6522,
      "End": 6523,
      "fundam": 6524,
      "1976": 6525,
      "interesting": 6526,
      "influenced": 6527,
      "distributed": 6528,
      "historic": 6529,
      "closely": 6530,
      "horse": 6531,
      "credited": 6532,
      "component": 6533,
      "Osborne": 6534,
      "magnetic": 6535,
      "GPT": 6536,
      "ultimately": 6537,
      "Iraq": 6538,
      "07": 6539,
      "81": 6540,
      "Ele": 6541,
      "Ha": 6542,
      "Jul": 6543,
      "Op": 6544,
      "Tro": 6545,
      "cock": 6546,
      "kg": 6547,
      "mph": 6548,
      "pac": 6549,
      "slightly": 6550,
      "vit": 6551,
      "intel": 6552,
      "onia": 6553,
      "reaction": 6554,
      "isa": 6555,
      "andom": 6556,
      "ivals": 6557,
      "shall": 6558,
      "assess": 6559,
      "liver": 6560,
      "doctor": 6561,
      "spar": 6562,
      "prec": 6563,
      "premier": 6564,
      "cake": 6565,
      "simpl": 6566,
      "Provide": 6567,
      "1948": 6568,
      "1949": 6569,
      "explore": 6570,
      "proteins": 6571,
      "visiting": 6572,
      "electrons": 6573,
      "environmental": 6574,
      "regularly": 6575,
      "opponent": 6576,
      "temporary": 6577,
      "infrastructure": 6578,
      "agreement": 6579,
      "fashion": 6580,
      "equivalent": 6581,
      "Clar": 6582,
      "Cost": 6583,
      "Dark": 6584,
      "Ethi": 6585,
      "Mes": 6586,
      "Num": 6587,
      "Ring": 6588,
      "Show": 6589,
      "bomb": 6590,
      "iated": 6591,
      "ience": 6592,
      "san": 6593,
      "wave": 6594,
      "yan": 6595,
      "represents": 6596,
      "alu": 6597,
      "conference": 6598,
      "proof": 6599,
      "actors": 6600,
      "meal": 6601,
      "upper": 6602,
      "Stand": 6603,
      "aked": 6604,
      "county": 6605,
      "18th": 6606,
      "ciation": 6607,
      "Arsen": 6608,
      "breeds": 6609,
      "apply": 6610,
      "operated": 6611,
      "designated": 6612,
      "1958": 6613,
      "marks": 6614,
      "graphical": 6615,
      "physics": 6616,
      "burgh": 6617,
      "practices": 6618,
      "Republican": 6619,
      "synthesis": 6620,
      "principle": 6621,
      "patterns": 6622,
      "Human": 6623,
      "maximum": 6624,
      "Spring": 6625,
      "demonstr": 6626,
      "Development": 6627,
      "Az": 6628,
      "Bus": 6629,
      "Edu": 6630,
      "Fish": 6631,
      "Kur": 6632,
      "Kaf": 6633,
      "Mess": 6634,
      "Nic": 6635,
      "Ray": 6636,
      "Wild": 6637,
      "ek": 6638,
      "fa": 6639,
      "freedom": 6640,
      "hatt": 6641,
      "piano": 6642,
      "shel": 6643,
      "infect": 6644,
      "anne": 6645,
      "enge": 6646,
      "stations": 6647,
      "stories": 6648,
      "tery": 6649,
      "aller": 6650,
      "neither": 6651,
      "actual": 6652,
      "actress": 6653,
      "losing": 6654,
      "airport": 6655,
      "1962": 6656,
      "1967": 6657,
      "powered": 6658,
      "Trump": 6659,
      "fluor": 6660,
      "holes": 6661,
      "interested": 6662,
      "changing": 6663,
      "motiv": 6664,
      "Philipp": 6665,
      "secs": 6666,
      "prepare": 6667,
      "Typ": 6668,
      "principal": 6669,
      "bonds": 6670,
      "felt": 6671,
      "subsequently": 6672,
      "Kennedy": 6673,
      "Houston": 6674,
      "Ethiop": 6675,
      "46": 6676,
      "Bi": 6677,
      "Fame": 6678,
      "Face": 6679,
      "Gil": 6680,
      "Kent": 6681,
      "Las": 6682,
      "Mand": 6683,
      "Slo": 6684,
      "Sports": 6685,
      "dating": 6686,
      "hope": 6687,
      "mist": 6688,
      "uese": 6689,
      "ão": 6690,
      "entry": 6691,
      "dem": 6692,
      "beef": 6693,
      "etime": 6694,
      "ulate": 6695,
      "abad": 6696,
      "opposed": 6697,
      "ott": 6698,
      "umes": 6699,
      "peace": 6700,
      "resident": 6701,
      "notes": 6702,
      "ultural": 6703,
      "tah": 6704,
      "visited": 6705,
      "insula": 6706,
      "iox": 6707,
      "1978": 6708,
      "travell": 6709,
      "1961": 6710,
      "Bridge": 6711,
      "lawyer": 6712,
      "competitions": 6713,
      "Country": 6714,
      "reducing": 6715,
      "specialized": 6716,
      "horizon": 6717,
      "Reser": 6718,
      "successfully": 6719,
      "conduct": 6720,
      "crypto": 6721,
      "adults": 6722,
      "heavily": 6723,
      "neighborhood": 6724,
      "fictional": 6725,
      "intellect": 6726,
      ")]": 6727,
      "51": 6728,
      "76": 6729,
      "Bear": 6730,
      "Bull": 6731,
      "Cas": 6732,
      "Iron": 6733,
      "Later": 6734,
      "Rail": 6735,
      "SO": 6736,
      "SQL": 6737,
      "hits": 6738,
      "mous": 6739,
      "tables": 6740,
      "instein": 6741,
      "arian": 6742,
      "tos": 6743,
      "cha": 6744,
      "chos": 6745,
      "conver": 6746,
      "otic": 6747,
      "peror": 6748,
      "strike": 6749,
      "mail": 6750,
      "weigh": 6751,
      "izard": 6752,
      "velt": 6753,
      "causing": 6754,
      "letters": 6755,
      "Pho": 6756,
      "headquarters": 6757,
      "idespread": 6758,
      "voice": 6759,
      "association": 6760,
      "BCE": 6761,
      "Michigan": 6762,
      "Peru": 6763,
      "Point": 6764,
      "purchased": 6765,
      "treatment": 6766,
      "comfortable": 6767,
      "Oxford": 6768,
      "origins": 6769,
      "600": 6770,
      "Food": 6771,
      "Key": 6772,
      "Tas": 6773,
      "Tun": 6774,
      "UV": 6775,
      "fill": 6776,
      "migr": 6777,
      "nit": 6778,
      "throw": 6779,
      "leball": 6780,
      "iden": 6781,
      "avig": 6782,
      "cious": 6783,
      "themes": 6784,
      "myth": 6785,
      "captain": 6786,
      "lift": 6787,
      "moves": 6788,
      "Gram": 6789,
      "valid": 6790,
      "versions": 6791,
      "Project": 6792,
      "succeed": 6793,
      "representing": 6794,
      "existence": 6795,
      "continuous": 6796,
      "vania": 6797,
      "Build": 6798,
      "Solar": 6799,
      "huge": 6800,
      "Portuguese": 6801,
      "virtual": 6802,
      "permanent": 6803,
      "Arsenal": 6804,
      "Kafka": 6805,
      "41": 6806,
      "Bry": 6807,
      "Cle": 6808,
      "Cold": 6809,
      "Dun": 6810,
      "Jup": 6811,
      "PI": 6812,
      "Rh": 6813,
      "Rem": 6814,
      "Rod": 6815,
      "Scr": 6816,
      "Town": 6817,
      "cow": 6818,
      "kit": 6819,
      "ls": 6820,
      "rhy": 6821,
      "widespread": 6822,
      "inces": 6823,
      "ati": 6824,
      "andon": 6825,
      "andem": 6826,
      "stable": 6827,
      "beer": 6828,
      "concent": 6829,
      "ogy": 6830,
      "osevelt": 6831,
      "Prof": 6832,
      "trait": 6833,
      "shell": 6834,
      "markets": 6835,
      "Shiv": 6836,
      "legs": 6837,
      "marine": 6838,
      "titled": 6839,
      "traditionally": 6840,
      "periods": 6841,
      "payment": 6842,
      "Delhi": 6843,
      "defeat": 6844,
      "integration": 6845,
      "dinner": 6846,
      "Social": 6847,
      "Histor": 6848,
      "Nadal": 6849,
      "Morocco": 6850,
      "Educ": 6851,
      "43": 6852,
      "Da": 6853,
      "Fal": 6854,
      "Gib": 6855,
      "Nations": 6856,
      "Seven": 6857,
      "Ul": 6858,
      "pull": 6859,
      "pione": 6860,
      "riding": 6861,
      "wis": 6862,
      "yield": 6863,
      "anks": 6864,
      "isins": 6865,
      "omes": 6866,
      "acr": 6867,
      "server": 6868,
      "advis": 6869,
      "oda": 6870,
      "prison": 6871,
      "grant": 6872,
      "ideal": 6873,
      "merged": 6874,
      "phones": 6875,
      "relative": 6876,
      "smart": 6877,
      "suppl": 6878,
      "steak": 6879,
      "1950s": 6880,
      "ception": 6881,
      "itchen": 6882,
      "Separate": 6883,
      "visitors": 6884,
      "issued": 6885,
      "figures": 6886,
      "decline": 6887,
      "category": 6888,
      "expert": 6889,
      "relationships": 6890,
      "housing": 6891,
      "schedul": 6892,
      "phabet": 6893,
      "academic": 6894,
      "magnitude": 6895,
      "Stratocaster": 6896,
      "63": 6897,
      "Aud": 6898,
      "Five": 6899,
      "Jun": 6900,
      "fan": 6901,
      "kin": 6902,
      "aren": 6903,
      "util": 6904,
      "manage": 6905,
      "stri": 6906,
      "compar": 6907,
      "boot": 6908,
      "crimin": 6909,
      "Though": 6910,
      "bron": 6911,
      "osaur": 6912,
      "nothing": 6913,
      "17th": 6914,
      "Prov": 6915,
      "marathon": 6916,
      "save": 6917,
      "Roosevelt": 6918,
      "movements": 6919,
      "Board": 6920,
      "Examples": 6921,
      "sequences": 6922,
      "describes": 6923,
      "guitarist": 6924,
      "offering": 6925,
      "shares": 6926,
      "datas": 6927,
      "spirit": 6928,
      "API": 6929,
      "prompting": 6930,
      "restaurant": 6931,
      "bledon": 6932,
      "Bangl": 6933,
      "rapidly": 6934,
      "Between": 6935,
      "adapt": 6936,
      "Irish": 6937,
      "Roger": 6938,
      "therapy": 6939,
      "clothing": 6940,
      "Columbia": 6941,
      "Wimbledon": 6942,
      "Jupiter": 6943,
      "2nd": 6944,
      "58": 6945,
      "Dig": 6946,
      "Pink": 6947,
      "Terr": 6948,
      "Utah": 6949,
      "crow": 6950,
      "fers": 6951,
      "hat": 6952,
      "kick": 6953,
      "lers": 6954,
      "nom": 6955,
      "sister": 6956,
      "uous": 6957,
      "vast": 6958,
      "ws": 6959,
      "anx": 6960,
      "orter": 6961,
      "omer": 6962,
      "amen": 6963,
      "decre": 6964,
      "decor": 6965,
      "democr": 6966,
      "agnet": 6967,
      "idency": 6968,
      "haw": 6969,
      "ownership": 6970,
      "prepar": 6971,
      "driven": 6972,
      "speak": 6973,
      "Anton": 6974,
      "consult": 6975,
      "tenance": 6976,
      "electro": 6977,
      "Indones": 6978,
      "news": 6979,
      "Dead": 6980,
      "founding": 6981,
      "medal": 6982,
      "charges": 6983,
      "arrang": 6984,
      "curring": 6985,
      "solved": 6986,
      "purposes": 6987,
      "1956": 6988,
      "Carib": 6989,
      "profession": 6990,
      "potatoes": 6991,
      "Walt": 6992,
      "races": 6993,
      "communicate": 6994,
      "cooked": 6995,
      "spectrum": 6996,
      "journey": 6997,
      "message": 6998,
      "Pelé": 6999,
      "Natural": 7000,
      "sufficient": 7001,
      "amazing": 7002,
      "Tasman": 7003,
      "4th": 7004,
      "Cla": 7005,
      "Einstein": 7006,
      "Lim": 7007,
      "Oak": 7008,
      "Pad": 7009,
      "Post": 7010,
      "Women": 7011,
      "cm": 7012,
      "ja": 7013,
      "lvania": 7014,
      "ray": 7015,
      "tube": 7016,
      "retail": 7017,
      "atar": 7018,
      "xture": 7019,
      "union": 7020,
      "resistance": 7021,
      "Cho": 7022,
      "Chile": 7023,
      "sylvania": 7024,
      "invas": 7025,
      "perspect": 7026,
      "Sega": 7027,
      "background": 7028,
      "winners": 7029,
      "1957": 7030,
      "promoted": 7031,
      "tradition": 7032,
      "tower": 7033,
      "characterized": 7034,
      "combat": 7035,
      "circum": 7036,
      "tournaments": 7037,
      "Delta": 7038,
      "dedicated": 7039,
      "Franklin": 7040,
      "determined": 7041,
      "Foundation": 7042,
      "anthrop": 7043,
      "Pennsylvania": 7044,
      "inciples": 7045,
      ".)": 7046,
      "Ali": 7047,
      "BO": 7048,
      "Bos": 7049,
      "CP": 7050,
      "Ferr": 7051,
      "Gro": 7052,
      "Line": 7053,
      "Side": 7054,
      "bin": 7055,
      "cited": 7056,
      "census": 7057,
      "iary": 7058,
      "lots": 7059,
      "mm": 7060,
      "oa": 7061,
      "rated": 7062,
      "vine": 7063,
      "told": 7064,
      "stances": 7065,
      "het": 7066,
      "ami": 7067,
      "apers": 7068,
      "apples": 7069,
      "elimin": 7070,
      "iath": 7071,
      "grape": 7072,
      "spital": 7073,
      "corn": 7074,
      "coln": 7075,
      "roughly": 7076,
      "topic": 7077,
      "arrived": 7078,
      "leads": 7079,
      "Before": 7080,
      "seconds": 7081,
      "classic": 7082,
      "severe": 7083,
      "Parliament": 7084,
      "bullet": 7085,
      "practical": 7086,
      "axy": 7087,
      "hosted": 7088,
      "Lincoln": 7089,
      "vocal": 7090,
      "Korean": 7091,
      "valuable": 7092,
      "camera": 7093,
      "phase": 7094,
      "hundreds": 7095,
      "Caribbean": 7096,
      "Bird": 7097,
      "Card": 7098,
      "Dom": 7099,
      "Lank": 7100,
      "SS": 7101,
      "lab": 7102,
      "mamm": 7103,
      "ria": 7104,
      "sla": 7105,
      "tack": 7106,
      "sector": 7107,
      "aded": 7108,
      "trig": 7109,
      "cluster": 7110,
      "shr": 7111,
      "liber": 7112,
      "ghan": 7113,
      "Stadium": 7114,
      "formally": 7115,
      "bling": 7116,
      "Anth": 7117,
      "newly": 7118,
      "iov": 7119,
      "charging": 7120,
      "polic": 7121,
      "profit": 7122,
      "naturally": 7123,
      "businesses": 7124,
      "unders": 7125,
      "traveling": 7126,
      "controls": 7127,
      "sixth": 7128,
      "employed": 7129,
      "happened": 7130,
      "Malays": 7131,
      "Madrid": 7132,
      "Magic": 7133,
      "funds": 7134,
      "millenn": 7135,
      "universities": 7136,
      "Treaty": 7137,
      "Bangladesh": 7138,
      "%.": 7139,
      "98": 7140,
      "MA": 7141,
      "Niger": 7142,
      "bury": 7143,
      "gases": 7144,
      "kar": 7145,
      "mur": 7146,
      "wid": 7147,
      "thy": 7148,
      "inhabit": 7149,
      "anches": 7150,
      "orph": 7151,
      "lyn": 7152,
      "terrain": 7153,
      "agreed": 7154,
      "emon": 7155,
      "meters": 7156,
      "feat": 7157,
      "uded": 7158,
      "noted": 7159,
      "notably": 7160,
      "Story": 7161,
      "bright": 7162,
      "genome": 7163,
      "paralle": 7164,
      "raise": 7165,
      "desired": 7166,
      "guest": 7167,
      "decide": 7168,
      "covering": 7169,
      "penal": 7170,
      "autism": 7171,
      "experiences": 7172,
      "experienced": 7173,
      "happens": 7174,
      "storm": 7175,
      "copies": 7176,
      "broadcast": 7177,
      "attempts": 7178,
      "Daniel": 7179,
      "loyd": 7180,
      "batting": 7181,
      "Global": 7182,
      "Russell": 7183,
      "Government": 7184,
      "1st": 7185,
      "53": 7186,
      "78": 7187,
      "Cop": 7188,
      "Det": 7189,
      "Easter": 7190,
      "Festival": 7191,
      "Jiang": 7192,
      "Liver": 7193,
      "Mumb": 7194,
      "Tele": 7195,
      "Well": 7196,
      "Winter": 7197,
      "Wolf": 7198,
      "nel": 7199,
      "inse": 7200,
      "leaf": 7201,
      "illy": 7202,
      "seg": 7203,
      "rocks": 7204,
      "bears": 7205,
      "ura": 7206,
      "agn": 7207,
      "apart": 7208,
      "tray": 7209,
      "manner": 7210,
      "lide": 7211,
      "creates": 7212,
      "anyone": 7213,
      "Anne": 7214,
      "Ancient": 7215,
      "Friday": 7216,
      "airs": 7217,
      "Leon": 7218,
      "norm": 7219,
      "Author": 7220,
      "dependence": 7221,
      "decay": 7222,
      "protection": 7223,
      "forcement": 7224,
      "reports": 7225,
      "pairs": 7226,
      "computing": 7227,
      "opportunities": 7228,
      "philosophy": 7229,
      "Lucas": 7230,
      "sustain": 7231,
      "Contin": 7232,
      "Cree": 7233,
      "DA": 7234,
      "Due": 7235,
      "NH": 7236,
      "Tower": 7237,
      "hang": 7238,
      "kitchen": 7239,
      "las": 7240,
      "nuts": 7241,
      "rix": 7242,
      "tight": 7243,
      "vak": 7244,
      "varies": 7245,
      "yards": 7246,
      "zing": 7247,
      "enh": 7248,
      "verage": 7249,
      "ette": 7250,
      "usive": 7251,
      "1920": 7252,
      "1918": 7253,
      "clock": 7254,
      "mented": 7255,
      "compass": 7256,
      "loom": 7257,
      "genes": 7258,
      "disorder": 7259,
      "Pradesh": 7260,
      "Phys": 7261,
      "steam": 7262,
      "metric": 7263,
      "1941": 7264,
      "Allen": 7265,
      "supporting": 7266,
      "possibly": 7267,
      "Web": 7268,
      "songwriter": 7269,
      "facing": 7270,
      "objective": 7271,
      "focuses": 7272,
      "Minnes": 7273,
      "Muslim": 7274,
      "claims": 7275,
      "vacc": 7276,
      "Linux": 7277,
      "Famous": 7278,
      "Machine": 7279,
      "resorts": 7280,
      "candidate": 7281,
      "athletes": 7282,
      "library": 7283,
      "Beatles": 7284,
      "vulner": 7285,
      "hattan": 7286,
      "Cry": 7287,
      "Dar": 7288,
      "Down": 7289,
      "Fant": 7290,
      "Girl": 7291,
      "Hockey": 7292,
      "Lab": 7293,
      "Mu": 7294,
      "Rev": 7295,
      "barr": 7296,
      "bases": 7297,
      "lakes": 7298,
      "pi": 7299,
      "pel": 7300,
      "pets": 7301,
      "random": 7302,
      "wy": 7303,
      "thur": 7304,
      "inn": 7305,
      "indoor": 7306,
      "inaug": 7307,
      "theme": 7308,
      "retr": 7309,
      "replace": 7310,
      "atically": 7311,
      "edia": 7312,
      "outer": 7313,
      "ication": 7314,
      "acle": 7315,
      "endar": 7316,
      "improv": 7317,
      "iga": 7318,
      "urs": 7319,
      "aga": 7320,
      "convers": 7321,
      "plenty": 7322,
      "weg": 7323,
      "meant": 7324,
      "crime": 7325,
      "bra": 7326,
      "genres": 7327,
      "cury": 7328,
      "noise": 7329,
      "skate": 7330,
      "thentic": 7331,
      "varieties": 7332,
      "traits": 7333,
      "engineers": 7334,
      "flows": 7335,
      "keeping": 7336,
      "circle": 7337,
      "frequency": 7338,
      "subsequent": 7339,
      "Temple": 7340,
      "Nepal": 7341,
      "Belgium": 7342,
      "Austin": 7343,
      "andemic": 7344,
      "policies": 7345,
      "Minnesota": 7346,
      "59": 7347,
      "91": 7348,
      "Cross": 7349,
      "IV": 7350,
      "Ker": 7351,
      "PM": 7352,
      "SP": 7353,
      "Sau": 7354,
      "Ti": 7355,
      "Whe": 7356,
      "aer": 7357,
      "crop": 7358,
      "fab": 7359,
      "honey": 7360,
      "kins": 7361,
      "pig": 7362,
      "rein": 7363,
      "reviews": 7364,
      "oma": 7365,
      "root": 7366,
      "bec": 7367,
      "serious": 7368,
      "adi": 7369,
      "trib": 7370,
      "umn": 7371,
      "proced": 7372,
      "lla": 7373,
      "blind": 7374,
      "phant": 7375,
      "evalu": 7376,
      "partners": 7377,
      "Head": 7378,
      "facts": 7379,
      "Afghan": 7380,
      "magazine": 7381,
      "alongside": 7382,
      "ernal": 7383,
      "gradually": 7384,
      "quartered": 7385,
      "wait": 7386,
      "suggested": 7387,
      "walls": 7388,
      "younger": 7389,
      "exactly": 7390,
      "Jefferson": 7391,
      "Hemis": 7392,
      "crisis": 7393,
      "phrase": 7394,
      "newspaper": 7395,
      "Vegas": 7396,
      "Colombia": 7397,
      "mammals": 7398,
      "Agr": 7399,
      "Bac": 7400,
      "Dat": 7401,
      "Gul": 7402,
      "Hard": 7403,
      "Mos": 7404,
      "Nick": 7405,
      "PP": 7406,
      "Pok": 7407,
      "Si": 7408,
      "Tai": 7409,
      "cro": 7410,
      "haps": 7411,
      "nut": 7412,
      "til": 7413,
      "tons": 7414,
      "án": 7415,
      "item": 7416,
      "toward": 7417,
      "static": 7418,
      "acceler": 7419,
      "images": 7420,
      "ationally": 7421,
      "idays": 7422,
      "idae": 7423,
      "conven": 7424,
      "mode": 7425,
      "plus": 7426,
      "keys": 7427,
      "shift": 7428,
      "ardo": 7429,
      "loan": 7430,
      "loved": 7431,
      "foss": 7432,
      "Universe": 7433,
      "finance": 7434,
      "nament": 7435,
      "underlying": 7436,
      "Secret": 7437,
      "substant": 7438,
      "transactions": 7439,
      "Shar": 7440,
      "scene": 7441,
      "viewed": 7442,
      "finding": 7443,
      "Harvard": 7444,
      "statistical": 7445,
      "seventh": 7446,
      "Descr": 7447,
      "emphas": 7448,
      "execut": 7449,
      "Cambridge": 7450,
      "Jean": 7451,
      "secure": 7452,
      "Woods": 7453,
      "religion": 7454,
      "beaches": 7455,
      "graduate": 7456,
      "feld": 7457,
      "giant": 7458,
      "innov": 7459,
      "attached": 7460,
      "Several": 7461,
      "Entertainment": 7462,
      "fundamental": 7463,
      "Phoen": 7464,
      "03": 7465,
      "435": 7466,
      "Dor": 7467,
      "Eag": 7468,
      "Kal": 7469,
      "Loc": 7470,
      "Liang": 7471,
      "Pick": 7472,
      "dia": 7473,
      "pandemic": 7474,
      "sid": 7475,
      "soup": 7476,
      "tes": 7477,
      "tical": 7478,
      "vant": 7479,
      "inches": 7480,
      "sters": 7481,
      "omagnet": 7482,
      "roast": 7483,
      "deck": 7484,
      "umin": 7485,
      "uty": 7486,
      "shif": 7487,
      "shut": 7488,
      "perce": 7489,
      "strugg": 7490,
      "grade": 7491,
      "lix": 7492,
      "spell": 7493,
      "efforts": 7494,
      "workout": 7495,
      "auth": 7496,
      "capita": 7497,
      "medals": 7498,
      "sels": 7499,
      "Norweg": 7500,
      "transform": 7501,
      "trains": 7502,
      "enna": 7503,
      "politics": 7504,
      "Manhattan": 7505,
      "advoc": 7506,
      "Andrew": 7507,
      "holding": 7508,
      "missions": 7509,
      "windows": 7510,
      "industries": 7511,
      "harm": 7512,
      "Does": 7513,
      "Walter": 7514,
      "functional": 7515,
      "astronom": 7516,
      "senior": 7517,
      "graduated": 7518,
      "debt": 7519,
      "vocals": 7520,
      "administrative": 7521,
      "ranging": 7522,
      "Software": 7523,
      "Square": 7524,
      "Toyota": 7525,
      "nasty": 7526,
      "cuisine": 7527,
      "transistor": 7528,
      "Gandhi": 7529,
      "Education": 7530,
      "Hemisphere": 7531,
      "Norwegian": 7532,
      "DI": 7533,
      "Eric": 7534,
      "Field": 7535,
      "Ol": 7536,
      "Pet": 7537,
      "Tol": 7538,
      "fav": 7539,
      "jazz": 7540,
      "pod": 7541,
      "yoga": 7542,
      "orient": 7543,
      "asset": 7544,
      "icke": 7545,
      "seems": 7546,
      "champions": 7547,
      "elve": 7548,
      "frames": 7549,
      "expo": 7550,
      "youth": 7551,
      "spons": 7552,
      "lowest": 7553,
      "Thus": 7554,
      "otherwise": 7555,
      "ultane": 7556,
      "corner": 7557,
      "overs": 7558,
      "Any": 7559,
      "observ": 7560,
      "interaction": 7561,
      "maintenance": 7562,
      "lists": 7563,
      "rank": 7564,
      "please": 7565,
      "guard": 7566,
      "Isa": 7567,
      "Islam": 7568,
      "headquartered": 7569,
      "ucks": 7570,
      "governments": 7571,
      "volcan": 7572,
      "sunlight": 7573,
      "Financial": 7574,
      "bull": 7575,
      "Serb": 7576,
      "breaking": 7577,
      "riots": 7578,
      "ucky": 7579,
      "sterdam": 7580,
      "containing": 7581,
      "failure": 7582,
      "entirely": 7583,
      "integrated": 7584,
      "renamed": 7585,
      "challenging": 7586,
      "munic": 7587,
      "Similar": 7588,
      "mathematics": 7589,
      "pilot": 7590,
      "youngest": 7591,
      "citizens": 7592,
      "Ukraine": 7593,
      "Mumbai": 7594,
      "72": 7595,
      "Bh": 7596,
      "Dol": 7597,
      "EP": 7598,
      "Free": 7599,
      "Mill": 7600,
      "Pear": 7601,
      "aired": 7602,
      "fal": 7603,
      "male": 7604,
      "navig": 7605,
      "pin": 7606,
      "rack": 7607,
      "tast": 7608,
      "von": 7609,
      "reign": 7610,
      "army": 7611,
      "improved": 7612,
      "tries": 7613,
      "shorter": 7614,
      "principles": 7615,
      "assistant": 7616,
      "bris": 7617,
      "brush": 7618,
      "mont": 7619,
      "Arthur": 7620,
      "Albert": 7621,
      "foundation": 7622,
      "variations": 7623,
      "solutions": 7624,
      "steel": 7625,
      "controvers": 7626,
      "mixture": 7627,
      "1933": 7628,
      "researchers": 7629,
      "Edward": 7630,
      "consistent": 7631,
      "Amsterdam": 7632,
      "delivery": 7633,
      "situations": 7634,
      "teacher": 7635,
      "smooth": 7636,
      "debate": 7637,
      "Larry": 7638,
      "Soccer": 7639,
      "percentage": 7640,
      "closer": 7641,
      "cycling": 7642,
      "obtained": 7643,
      "Warriors": 7644,
      "stroke": 7645,
      "Ottoman": 7646,
      "Nevada": 7647,
      "Hindi": 7648,
      "intellectual": 7649,
      "perspective": 7650,
      "Creek": 7651,
      "Dam": 7652,
      "Dall": 7653,
      "EM": 7654,
      "eign": 7655,
      "iety": 7656,
      "inher": 7657,
      "theastern": 7658,
      "rear": 7659,
      "asking": 7660,
      "oured": 7661,
      "icts": 7662,
      "unciation": 7663,
      "apol": 7664,
      "trou": 7665,
      "Invest": 7666,
      "ements": 7667,
      "math": 7668,
      "boats": 7669,
      "overeign": 7670,
      "Antar": 7671,
      "genetic": 7672,
      "desc": 7673,
      "province": 7674,
      "subscr": 7675,
      "16th": 7676,
      "1954": 7677,
      "economics": 7678,
      "defensive": 7679,
      "breakfast": 7680,
      "employment": 7681,
      "availability": 7682,
      "electromagnet": 7683,
      "Musk": 7684,
      "figs": 7685,
      "Romania": 7686,
      "Computer": 7687,
      "maintained": 7688,
      "opping": 7689,
      "beauty": 7690,
      "teeth": 7691,
      "Mercury": 7692,
      "satis": 7693,
      "immigr": 7694,
      "birthday": 7695,
      "affected": 7696,
      "Stock": 7697,
      "MLB": 7698,
      "Supreme": 7699,
      "Titan": 7700,
      "Bengal": 7701,
      "Technology": 7702,
      "protocol": 7703,
      "peanut": 7704,
      "61": 7705,
      "800": 7706,
      "EU": 7707,
      "Find": 7708,
      "NL": 7709,
      "Nik": 7710,
      "bench": 7711,
      "nob": 7712,
      "says": 7713,
      "sovereign": 7714,
      "thin": 7715,
      "isn": 7716,
      "hear": 7717,
      "heard": 7718,
      "seats": 7719,
      "unknown": 7720,
      "aggress": 7721,
      "coord": 7722,
      "grid": 7723,
      "Stat": 7724,
      "kingdom": 7725,
      "conscious": 7726,
      "colleg": 7727,
      "authentic": 7728,
      "register": 7729,
      "cery": 7730,
      "Newton": 7731,
      "iveness": 7732,
      "northeast": 7733,
      "biology": 7734,
      "tomato": 7735,
      "1950": 7736,
      "Moore": 7737,
      "holidays": 7738,
      "brothers": 7739,
      "audio": 7740,
      "Fox": 7741,
      "Among": 7742,
      "Williams": 7743,
      "exercises": 7744,
      "resource": 7745,
      "Sky": 7746,
      "Oscar": 7747,
      "Panama": 7748,
      "slowly": 7749,
      "colonial": 7750,
      "delivered": 7751,
      "detect": 7752,
      "resolution": 7753,
      "completion": 7754,
      "chosen": 7755,
      "Indonesia": 7756,
      "\"?": 7757,
      ".:": 7758,
      "Ep": 7759,
      "Gun": 7760,
      "Kings": 7761,
      "Khan": 7762,
      "Pi": 7763,
      "Pas": 7764,
      "Pict": 7765,
      "Press": 7766,
      "Slam": 7767,
      "Tot": 7768,
      "cers": 7769,
      "fellow": 7770,
      "hr": 7771,
      "kill": 7772,
      "knew": 7773,
      "ɑː": 7774,
      "stages": 7775,
      "semic": 7776,
      "aret": 7777,
      "etary": 7778,
      "excess": 7779,
      "mann": 7780,
      "berry": 7781,
      "bernet": 7782,
      "Chi": 7783,
      "crack": 7784,
      "crash": 7785,
      "ogue": 7786,
      "coll": 7787,
      "inson": 7788,
      "borders": 7789,
      "issions": 7790,
      "Therefore": 7791,
      "statement": 7792,
      "Prix": 7793,
      "simultane": 7794,
      "transaction": 7795,
      "aham": 7796,
      "Carl": 7797,
      "promote": 7798,
      "virus": 7799,
      "magic": 7800,
      "farm": 7801,
      "happen": 7802,
      "historically": 7803,
      "regarding": 7804,
      "copper": 7805,
      "jobs": 7806,
      "silver": 7807,
      "contributions": 7808,
      "finger": 7809,
      "pronunciation": 7810,
      "occupied": 7811,
      "Motor": 7812,
      "minerals": 7813,
      "Radio": 7814,
      "Tokyo": 7815,
      "iathlon": 7816,
      "Liverpool": 7817,
      "Ba": 7818,
      "Bot": 7819,
      "CI": 7820,
      "CR": 7821,
      "Cany": 7822,
      "Domin": 7823,
      "EV": 7824,
      "FT": 7825,
      "Hon": 7826,
      "Hond": 7827,
      "Jam": 7828,
      "Ka": 7829,
      "Kir": 7830,
      "Rose": 7831,
      "Tan": 7832,
      "eco": 7833,
      "page": 7834,
      "wake": 7835,
      "ented": 7836,
      "robot": 7837,
      "chi": 7838,
      "idation": 7839,
      "otam": 7840,
      "pros": 7841,
      "Conne": 7842,
      "Constitution": 7843,
      "greg": 7844,
      "Arctic": 7845,
      "engaged": 7846,
      "presidency": 7847,
      "iolet": 7848,
      "developers": 7849,
      "wonder": 7850,
      "receiving": 7851,
      "fewer": 7852,
      "physic": 7853,
      "1934": 7854,
      "1937": 7855,
      "radiation": 7856,
      "hike": 7857,
      "vegetable": 7858,
      "quarterback": 7859,
      "coastal": 7860,
      "concerns": 7861,
      "satell": 7862,
      "Mountains": 7863,
      "contributed": 7864,
      "Special": 7865,
      "railway": 7866,
      "Family": 7867,
      "frozen": 7868,
      "stretch": 7869,
      "excellent": 7870,
      "Business": 7871,
      "parallel": 7872,
      "Canyon": 7873,
      "\"),": 7874,
      "Ag": 7875,
      "Cze": 7876,
      "DR": 7877,
      "GC": 7878,
      "Mult": 7879,
      "Mike": 7880,
      "Sar": 7881,
      "Six": 7882,
      "Sony": 7883,
      "Win": 7884,
      "diver": 7885,
      "fre": 7886,
      "kal": 7887,
      "pension": 7888,
      "sight": 7889,
      "tub": 7890,
      "ye": 7891,
      "reci": 7892,
      "itt": 7893,
      "tood": 7894,
      "hemis": 7895,
      "whis": 7896,
      "comedy": 7897,
      "commod": 7898,
      "estate": 7899,
      "pra": 7900,
      "poser": 7901,
      "coal": 7902,
      "preserved": 7903,
      "dismiss": 7904,
      "ails": 7905,
      "Season": 7906,
      "external": 7907,
      "depth": 7908,
      "smallest": 7909,
      "Place": 7910,
      "grams": 7911,
      "turns": 7912,
      "reduces": 7913,
      "membership": 7914,
      "evolved": 7915,
      "Capit": 7916,
      "saying": 7917,
      "participate": 7918,
      "populations": 7919,
      "Depending": 7920,
      "injury": 7921,
      "millions": 7922,
      "Sciences": 7923,
      "transferred": 7924,
      "Liber": 7925,
      "joining": 7926,
      "trails": 7927,
      "Dogs": 7928,
      "Wilson": 7929,
      "Satur": 7930,
      "mathematical": 7931,
      "Baby": 7932,
      "dynamic": 7933,
      "wrong": 7934,
      "martial": 7935,
      "Ethiopia": 7936,
      "Facebook": 7937,
      "ioxide": 7938,
      "understood": 7939,
      "NHL": 7940,
      "AW": 7941,
      "Cart": 7942,
      "DB": 7943,
      "Hand": 7944,
      "Mario": 7945,
      "PGA": 7946,
      "SR": 7947,
      "Wel": 7948,
      "lb": 7949,
      "uan": 7950,
      "rev": 7951,
      "lemon": 7952,
      "heli": 7953,
      "ilit": 7954,
      "tered": 7955,
      "ighters": 7956,
      "grains": 7957,
      "compress": 7958,
      "Chil": 7959,
      "drinking": 7960,
      "Ark": 7961,
      "offensive": 7962,
      "Dec": 7963,
      "delic": 7964,
      "calls": 7965,
      "runner": 7966,
      "Maria": 7967,
      "anna": 7968,
      "planes": 7969,
      "musician": 7970,
      "Adam": 7971,
      "Management": 7972,
      "Jane": 7973,
      "McDonald": 7974,
      "statistics": 7975,
      "Airlines": 7976,
      "sentence": 7977,
      "Christmas": 7978,
      "Capital": 7979,
      "situated": 7980,
      "populated": 7981,
      "celebrated": 7982,
      "Large": 7983,
      "torto": 7984,
      "schedule": 7985,
      "linked": 7986,
      "parameters": 7987,
      "Afghanistan": 7988,
      "exposure": 7989,
      "87": 7990,
      "AL": 7991,
      "Band": 7992,
      "Cha": 7993,
      "Dj": 7994,
      "Dy": 7995,
      "Der": 7996,
      "IN": 7997,
      "Live": 7998,
      "Nap": 7999,
      "Rain": 8000,
      "SM": 8001,
      "Sound": 8002,
      "Us": 8003,
      "WW": 8004,
      "brow": 8005,
      "dioxide": 8006,
      "eing": 8007,
      "flix": 8008,
      "gol": 8009,
      "nest": 8010,
      "och": 8011,
      "pun": 8012,
      "pump": 8013,
      "uum": 8014,
      "voting": 8015,
      "ón": 8016,
      "inal": 8017,
      "erto": 8018,
      "reput": 8019,
      "asure": 8020,
      "tech": 8021,
      "rogen": 8022,
      "depos": 8023,
      "adventure": 8024,
      "opotam": 8025,
      "oty": 8026,
      "neur": 8027,
      "exam": 8028,
      "strain": 8029,
      "inea": 8030,
      "izz": 8031,
      "spices": 8032,
      "boys": 8033,
      "Ther": 8034,
      "ampa": 8035,
      "Fri": 8036,
      "desk": 8037,
      "elections": 8038,
      "gym": 8039,
      "secondary": 8040,
      "Only": 8041,
      "Auto": 8042,
      "classification": 8043,
      "handle": 8044,
      "continental": 8045,
      "publicly": 8046,
      "showed": 8047,
      "elevation": 8048,
      "possess": 8049,
      "Final": 8050,
      "burger": 8051,
      "monthly": 8052,
      "linear": 8053,
      "campus": 8054,
      "Ministry": 8055,
      "kinds": 8056,
      "qualifying": 8057,
      "emerged": 8058,
      "Hyder": 8059,
      "valued": 8060,
      "accepted": 8061,
      "philosoph": 8062,
      "57435": 8063,
      "grossing": 8064,
      "Memorial": 8065,
      "paintings": 8066,
      "igenous": 8067,
      "Mesopotam": 8068,
      "Malaysia": 8069,
      "inhabitants": 8070,
      "Phoenix": 8071,
      "Saturday": 8072,
      "Broad": 8073,
      "Blood": 8074,
      "ICC": 8075,
      "Lady": 8076,
      "Mir": 8077,
      "Orange": 8078,
      "Tata": 8079,
      "Thail": 8080,
      "Wis": 8081,
      "cular": 8082,
      "cabin": 8083,
      "hus": 8084,
      "hra": 8085,
      "hidden": 8086,
      "patch": 8087,
      "rie": 8088,
      "tips": 8089,
      "waves": 8090,
      "enem": 8091,
      "iti": 8092,
      "stic": 8093,
      "vegan": 8094,
      "plug": 8095,
      "aple": 8096,
      "wash": 8097,
      "waste": 8098,
      "ifies": 8099,
      "1929": 8100,
      "Independence": 8101,
      "oca": 8102,
      "coined": 8103,
      "ishop": 8104,
      "aven": 8105,
      "cession": 8106,
      "diseas": 8107,
      "raisins": 8108,
      "mining": 8109,
      "lett": 8110,
      "label": 8111,
      "muscles": 8112,
      "presso": 8113,
      "biking": 8114,
      "restling": 8115,
      "Order": 8116,
      "Dragon": 8117,
      "1936": 8118,
      "harmon": 8119,
      "stronger": 8120,
      "Davis": 8121,
      "hitting": 8122,
      "destinations": 8123,
      "watching": 8124,
      "categor": 8125,
      "Jewish": 8126,
      "Tournament": 8127,
      "earthqu": 8128,
      "injuries": 8129,
      "Toronto": 8130,
      "manufacturers": 8131,
      "opponents": 8132,
      "savings": 8133,
      "phenomena": 8134,
      "agriculture": 8135,
      "paste": 8136,
      "Philippines": 8137,
      "Hyderabad": 8138,
      "Thailand": 8139,
      "diseases": 8140,
      "82": 8141,
      "93": 8142,
      "Gall": 8143,
      "Mas": 8144,
      "Our": 8145,
      "Sab": 8146,
      "UP": 8147,
      "bage": 8148,
      "bought": 8149,
      "dense": 8150,
      "eighth": 8151,
      "iar": 8152,
      "jur": 8153,
      "mad": 8154,
      "pu": 8155,
      "pus": 8156,
      "ration": 8157,
      "rational": 8158,
      "sor": 8159,
      "sizes": 8160,
      "tune": 8161,
      "vy": 8162,
      "wars": 8163,
      "thick": 8164,
      "aman": 8165,
      "roid": 8166,
      "isted": 8167,
      "olive": 8168,
      "imperial": 8169,
      "moist": 8170,
      "composer": 8171,
      "iffer": 8172,
      "1917": 8173,
      "ateur": 8174,
      "straw": 8175,
      "earn": 8176,
      "gry": 8177,
      "grap": 8178,
      "ureau": 8179,
      "Stor": 8180,
      "crew": 8181,
      "Unlike": 8182,
      "genus": 8183,
      "osing": 8184,
      "balls": 8185,
      "athers": 8186,
      "News": 8187,
      "Work": 8188,
      "lighting": 8189,
      "Beij": 8190,
      "transition": 8191,
      "incred": 8192,
      "hypo": 8193,
      "heads": 8194,
      "structural": 8195,
      "description": 8196,
      "explained": 8197,
      "household": 8198,
      "holder": 8199,
      "Sunday": 8200,
      "bigger": 8201,
      "scores": 8202,
      "racial": 8203,
      "Airport": 8204,
      "maintaining": 8205,
      "selection": 8206,
      "fitness": 8207,
      "----": 8208,
      "trophy": 8209,
      "royal": 8210,
      "restricted": 8211,
      "suitable": 8212,
      "opposing": 8213,
      "chairman": 8214,
      "Puerto": 8215,
      "Tennis": 8216,
      "concepts": 8217,
      "Typically": 8218,
      "Profess": 8219,
      "Lanka": 8220,
      "featuring": 8221,
      "Beijing": 8222,
      "Ath": 8223,
      "CH": 8224,
      "Categ": 8225,
      "ED": 8226,
      "Fut": 8227,
      "Floyd": 8228,
      "Gord": 8229,
      "Labor": 8230,
      "UR": 8231,
      "Ye": 8232,
      "furn": 8233,
      "mate": 8234,
      "oz": 8235,
      "pill": 8236,
      "render": 8237,
      "ergy": 8238,
      "espresso": 8239,
      "roof": 8240,
      "constit": 8241,
      "apor": 8242,
      "ums": 8243,
      "uten": 8244,
      "kemon": 8245,
      "ivia": 8246,
      "ema": 8247,
      "merch": 8248,
      "betes": 8249,
      "Arm": 8250,
      "identity": 8251,
      "lifestyle": 8252,
      "venues": 8253,
      "publish": 8254,
      "helping": 8255,
      "personality": 8256,
      "Short": 8257,
      "downtown": 8258,
      "handed": 8259,
      "wheat": 8260,
      "trading": 8261,
      "limits": 8262,
      "Barcel": 8263,
      "nucle": 8264,
      "Twitter": 8265,
      "existed": 8266,
      "consumer": 8267,
      "instance": 8268,
      "platforms": 8269,
      "Brazilian": 8270,
      "Electron": 8271,
      "challenge": 8272,
      "argue": 8273,
      "expression": 8274,
      "pitcher": 8275,
      "turning": 8276,
      "survive": 8277,
      "correctly": 8278,
      "Netflix": 8279,
      "repeated": 8280,
      "billions": 8281,
      "Ohio": 8282,
      "renew": 8283,
      "Croat": 8284,
      "Reserve": 8285,
      "Terrier": 8286,
      "Antonio": 8287,
      "Barcelona": 8288,
      "AG": 8289,
      "Est": 8290,
      "FL": 8291,
      "Ok": 8292,
      "Rac": 8293,
      "Turn": 8294,
      "Tampa": 8295,
      "cia": 8296,
      "diction": 8297,
      "fold": 8298,
      "si": 8299,
      "tag": 8300,
      "wo": 8301,
      "wider": 8302,
      "inction": 8303,
      "ondu": 8304,
      "sert": 8305,
      "iments": 8306,
      "advent": 8307,
      "agan": 8308,
      "withdraw": 8309,
      "Index": 8310,
      "clay": 8311,
      "sharing": 8312,
      "prize": 8313,
      "aches": 8314,
      "meals": 8315,
      "lied": 8316,
      "udes": 8317,
      "izer": 8318,
      "twenty": 8319,
      "ensed": 8320,
      "colour": 8321,
      "engines": 8322,
      "provinces": 8323,
      "ugu": 8324,
      "skating": 8325,
      "variants": 8326,
      "processor": 8327,
      "solute": 8328,
      "operate": 8329,
      "presentation": 8330,
      "metropolitan": 8331,
      "everyday": 8332,
      "1952": 8333,
      "seeing": 8334,
      "effectively": 8335,
      "banana": 8336,
      "officials": 8337,
      "Step": 8338,
      "calendar": 8339,
      "falling": 8340,
      "Augusta": 8341,
      "properly": 8342,
      "introduction": 8343,
      "defeating": 8344,
      "suggests": 8345,
      "documents": 8346,
      "ISO": 8347,
      "yram": 8348,
      "ratio": 8349,
      "nominated": 8350,
      "Duke": 8351,
      "accurate": 8352,
      "efficiency": 8353,
      "molecules": 8354,
      "Celtics": 8355,
      "Tunis": 8356,
      "Grammy": 8357,
      "Building": 8358,
      "normally": 8359,
      "semicondu": 8360,
      "recipe": 8361,
      "($": 8362,
      "Cer": 8363,
      "Greg": 8364,
      "Hi": 8365,
      "IM": 8366,
      "Kn": 8367,
      "Por": 8368,
      "Pier": 8369,
      "Sn": 8370,
      "Sah": 8371,
      "bone": 8372,
      "bally": 8373,
      "hob": 8374,
      "ias": 8375,
      "pace": 8376,
      "tied": 8377,
      "wicket": 8378,
      "inth": 8379,
      "incess": 8380,
      "eria": 8381,
      "onion": 8382,
      "thetic": 8383,
      "ende": 8384,
      "ester": 8385,
      "chrom": 8386,
      "unable": 8387,
      "agu": 8388,
      "agree": 8389,
      "abstr": 8390,
      "alliance": 8391,
      "aining": 8392,
      "shops": 8393,
      "coat": 8394,
      "avid": 8395,
      "formula": 8396,
      "disc": 8397,
      "regulation": 8398,
      "runners": 8399,
      "annually": 8400,
      "variation": 8401,
      "relevant": 8402,
      "evening": 8403,
      "seek": 8404,
      "Anderson": 8405,
      "magical": 8406,
      "Guinea": 8407,
      "connections": 8408,
      "feelings": 8409,
      "Corps": 8410,
      "Resort": 8411,
      "attractions": 8412,
      "tracks": 8413,
      "rotation": 8414,
      "cookies": 8415,
      "qualified": 8416,
      "Patrick": 8417,
      "Turk": 8418,
      "captured": 8419,
      "algorithms": 8420,
      "Originally": 8421,
      "grocery": 8422,
      "bacteria": 8423,
      "Victoria": 8424,
      "Dallas": 8425,
      "Fair": 8426,
      "Gh": 8427,
      "GIS": 8428,
      "Kol": 8429,
      "Pack": 8430,
      "Smo": 8431,
      "Try": 8432,
      "bind": 8433,
      "dess": 8434,
      "density": 8435,
      "fires": 8436,
      "gence": 8437,
      "rab": 8438,
      "tles": 8439,
      "instruction": 8440,
      "escape": 8441,
      "alleg": 8442,
      "altit": 8443,
      "Theatre": 8444,
      "construct": 8445,
      "abol": 8446,
      "apt": 8447,
      "trillion": 8448,
      "assigned": 8449,
      "looks": 8450,
      "spots": 8451,
      "crust": 8452,
      "affil": 8453,
      "drinks": 8454,
      "Univers": 8455,
      "itely": 8456,
      "willing": 8457,
      "sole": 8458,
      "interactions": 8459,
      "Lewis": 8460,
      "topped": 8461,
      "temples": 8462,
      "passes": 8463,
      "guaran": 8464,
      "Shang": 8465,
      "Plat": 8466,
      "organisms": 8467,
      "importance": 8468,
      "tourism": 8469,
      "tourists": 8470,
      "promot": 8471,
      "ordered": 8472,
      "coverage": 8473,
      "protected": 8474,
      "Guy": 8475,
      "entertainment": 8476,
      "investments": 8477,
      "returns": 8478,
      "consumed": 8479,
      "pasta": 8480,
      "closest": 8481,
      "golden": 8482,
      "powder": 8483,
      "colonies": 8484,
      "documentary": 8485,
      "adapted": 8486,
      "routine": 8487,
      "Engineering": 8488,
      "department": 8489,
      "Obama": 8490,
      "experimental": 8491,
      "occasion": 8492,
      "picture": 8493,
      "emotions": 8494,
      "streets": 8495,
      "dimensional": 8496,
      "settlement": 8497,
      "invasion": 8498,
      "Pearl": 8499,
      "Ax": 8500,
      "Cats": 8501,
      "Coffee": 8502,
      "Cape": 8503,
      "Es": 8504,
      "FO": 8505,
      "Gab": 8506,
      "HT": 8507,
      "MO": 8508,
      "Mol": 8509,
      "Nash": 8510,
      "Naz": 8511,
      "Sav": 8512,
      "Ten": 8513,
      "aqu": 8514,
      "bars": 8515,
      "fest": 8516,
      "iy": 8517,
      "rin": 8518,
      "raw": 8519,
      "rural": 8520,
      "sis": 8521,
      "sche": 8522,
      "zh": 8523,
      "inational": 8524,
      "oni": 8525,
      "alog": 8526,
      "itime": 8527,
      "acres": 8528,
      "seas": 8529,
      "endment": 8530,
      "servers": 8531,
      "uncertain": 8532,
      "agen": 8533,
      "agent": 8534,
      "plas": 8535,
      "odd": 8536,
      "exposed": 8537,
      "assass": 8538,
      "assign": 8539,
      "avia": 8540,
      "aki": 8541,
      "drome": 8542,
      "branches": 8543,
      "speakers": 8544,
      "lette": 8545,
      "Deep": 8546,
      "Assem": 8547,
      "topics": 8548,
      "police": 8549,
      "surf": 8550,
      "arring": 8551,
      "helpful": 8552,
      "portray": 8553,
      "putting": 8554,
      "thoughts": 8555,
      "multinational": 8556,
      "publication": 8557,
      "diagn": 8558,
      "potato": 8559,
      "Gujar": 8560,
      "Stev": 8561,
      "facilit": 8562,
      "involving": 8563,
      "painter": 8564,
      "southwest": 8565,
      "accessible": 8566,
      "teenth": 8567,
      "literary": 8568,
      "funding": 8569,
      "argument": 8570,
      "snack": 8571,
      "employee": 8572,
      "Maryland": 8573,
      "drums": 8574,
      "implemented": 8575,
      "latest": 8576,
      "modified": 8577,
      "citizen": 8578,
      "Peninsula": 8579,
      "dollars": 8580,
      "deployed": 8581,
      "anxiety": 8582,
      "Gulf": 8583,
      "bernetes": 8584,
      "grapher": 8585,
      "120": 8586,
      "Doc": 8587,
      "Dream": 8588,
      "Have": 8589,
      "Kat": 8590,
      "Put": 8591,
      "Ted": 8592,
      "Tax": 8593,
      "Wat": 8594,
      "baking": 8595,
      "fighter": 8596,
      "gains": 8597,
      "iform": 8598,
      "len": 8599,
      "loud": 8600,
      "narr": 8601,
      "oter": 8602,
      "rays": 8603,
      "wit": 8604,
      "thm": 8605,
      "onaut": 8606,
      "eno": 8607,
      "tok": 8608,
      "sta": 8609,
      "hearing": 8610,
      "roit": 8611,
      "decrease": 8612,
      "beings": 8613,
      "urt": 8614,
      "irates": 8615,
      "irty": 8616,
      "approved": 8617,
      "1900": 8618,
      "shopping": 8619,
      "exists": 8620,
      "excit": 8621,
      "manip": 8622,
      "poon": 8623,
      "los": 8624,
      "acknow": 8625,
      "Think": 8626,
      "playoff": 8627,
      "monetary": 8628,
      "Ant": 8629,
      "ensions": 8630,
      "Americas": 8631,
      "folio": 8632,
      "intervent": 8633,
      "Howard": 8634,
      "Prior": 8635,
      "signals": 8636,
      "tomatoes": 8637,
      "Ross": 8638,
      "successor": 8639,
      "animated": 8640,
      "competing": 8641,
      "sunrise": 8642,
      "pencil": 8643,
      "Guard": 8644,
      "holders": 8645,
      "broke": 8646,
      "enjoyed": 8647,
      "consistency": 8648,
      "Malay": 8649,
      "authority": 8650,
      "scientist": 8651,
      "massive": 8652,
      "invention": 8653,
      "firms": 8654,
      "frequent": 8655,
      "ruption": 8656,
      "ascular": 8657,
      "ATP": 8658,
      "Justin": 8659,
      "Denmark": 8660,
      "reliable": 8661,
      "phenomenon": 8662,
      "recipes": 8663,
      "nickname": 8664,
      "destroyed": 8665,
      "advertising": 8666,
      "Pinot": 8667,
      "Elder": 8668,
      "precise": 8669,
      "Messi": 8670,
      "succeeded": 8671,
      "fossil": 8672,
      "golfer": 8673,
      "Shanghai": 8674,
      "73": 8675,
      "Dick": 8676,
      "Eston": 8677,
      "Hung": 8678,
      "Rings": 8679,
      "Saudi": 8680,
      "cable": 8681,
      "filling": 8682,
      "mild": 8683,
      "mund": 8684,
      "pour": 8685,
      "tip": 8686,
      "uins": 8687,
      "vibr": 8688,
      "ée": 8689,
      "incent": 8690,
      "onna": 8691,
      "reward": 8692,
      "resem": 8693,
      "repet": 8694,
      "alo": 8695,
      "align": 8696,
      "alphabet": 8697,
      "editor": 8698,
      "heating": 8699,
      "urning": 8700,
      "agency": 8701,
      "resent": 8702,
      "artistic": 8703,
      "haz": 8704,
      "worst": 8705,
      "geon": 8706,
      "inequality": 8707,
      "spat": 8708,
      "notice": 8709,
      "akh": 8710,
      "knife": 8711,
      "desert": 8712,
      "heric": 8713,
      "Alab": 8714,
      "subsid": 8715,
      "Commit": 8716,
      "Should": 8717,
      "Prote": 8718,
      "supports": 8719,
      "Exe": 8720,
      "Maur": 8721,
      "bullets": 8722,
      "paragraphs": 8723,
      "sequencing": 8724,
      "tested": 8725,
      "Heritage": 8726,
      "beneficial": 8727,
      "Without": 8728,
      "historians": 8729,
      "appearing": 8730,
      "performances": 8731,
      "PlayStation": 8732,
      "shooting": 8733,
      "2000s": 8734,
      "Milan": 8735,
      "copy": 8736,
      "subjects": 8737,
      "iangle": 8738,
      "Files": 8739,
      "violent": 8740,
      "rosse": 8741,
      "varying": 8742,
      "Abd": 8743,
      "connecting": 8744,
      "Mahar": 8745,
      "restrict": 8746,
      "Denver": 8747,
      "routes": 8748,
      "Electricity": 8749,
      "Stanley": 8750,
      "UCLA": 8751,
      "Detroit": 8752,
      "Tibet": 8753,
      "Secretary": 8754,
      "controversial": 8755,
      "apolis": 8756,
      "Czech": 8757,
      "94": 8758,
      "Ah": 8759,
      "Ak": 8760,
      "Fle": 8761,
      "Gran": 8762,
      "Having": 8763,
      "Himal": 8764,
      "Jos": 8765,
      "Kev": 8766,
      "Vers": 8767,
      "Was": 8768,
      "dd": 8769,
      "iage": 8770,
      "lu": 8771,
      "oples": 8772,
      "pure": 8773,
      "sons": 8774,
      "tends": 8775,
      "uto": 8776,
      "yeast": 8777,
      "ça": 8778,
      "enable": 8779,
      "enables": 8780,
      "reject": 8781,
      "iture": 8782,
      "heim": 8783,
      "sson": 8784,
      "impress": 8785,
      "unless": 8786,
      "agers": 8787,
      "truck": 8788,
      "1919": 8789,
      "articles": 8790,
      "mention": 8791,
      "assistance": 8792,
      "indigenous": 8793,
      "twelve": 8794,
      "discover": 8795,
      "finishing": 8796,
      "specified": 8797,
      "Marg": 8798,
      "Beck": 8799,
      "15th": 8800,
      "operates": 8801,
      "designs": 8802,
      "1951": 8803,
      "1953": 8804,
      "1946": 8805,
      "eleven": 8806,
      "risks": 8807,
      "itarian": 8808,
      "window": 8809,
      "Twenty": 8810,
      "consisted": 8811,
      "consumers": 8812,
      "Francis": 8813,
      "Mexican": 8814,
      "vacuum": 8815,
      "Hollywood": 8816,
      "kilome": 8817,
      "Market": 8818,
      "implementation": 8819,
      "Humans": 8820,
      "Campbell": 8821,
      "ethnic": 8822,
      "pronounced": 8823,
      "feedback": 8824,
      "Scottish": 8825,
      "Harrison": 8826,
      "Organization": 8827,
      "ruled": 8828,
      "neutral": 8829,
      "parameter": 8830,
      "theorem": 8831,
      "Consider": 8832,
      "enabling": 8833,
      "pioneer": 8834,
      "oriented": 8835,
      "Alabama": 8836,
      "++": 8837,
      "5th": 8838,
      "9th": 8839,
      "Clevel": 8840,
      "Fine": 8841,
      "Hay": 8842,
      "Hold": 8843,
      "Knight": 8844,
      "Lor": 8845,
      "Non": 8846,
      "Vari": 8847,
      "fusion": 8848,
      "hub": 8849,
      "ien": 8850,
      "sop": 8851,
      "tact": 8852,
      "voted": 8853,
      "émon": 8854,
      "erup": 8855,
      "ativity": 8856,
      "alore": 8857,
      "stall": 8858,
      "stance": 8859,
      "etch": 8860,
      "moth": 8861,
      "abund": 8862,
      "trick": 8863,
      "eline": 8864,
      "oche": 8865,
      "mentation": 8866,
      "ipality": 8867,
      "grain": 8868,
      "compounds": 8869,
      "loop": 8870,
      "loose": 8871,
      "ieval": 8872,
      "drying": 8873,
      "angers": 8874,
      "centers": 8875,
      "interface": 8876,
      "interpret": 8877,
      "buck": 8878,
      "Marin": 8879,
      "Marathon": 8880,
      "considering": 8881,
      "hyper": 8882,
      "1944": 8883,
      "summit": 8884,
      "courses": 8885,
      "humanity": 8886,
      "explored": 8887,
      "rising": 8888,
      "ometry": 8889,
      "potentially": 8890,
      "reaches": 8891,
      "facilities": 8892,
      "rainbow": 8893,
      "winds": 8894,
      "happiness": 8895,
      "telephone": 8896,
      "civilization": 8897,
      "hosts": 8898,
      "Players": 8899,
      "Portland": 8900,
      "dynasty": 8901,
      "emergency": 8902,
      "teaching": 8903,
      "targeted": 8904,
      "violin": 8905,
      "committee": 8906,
      "Justice": 8907,
      "atomic": 8908,
      "Matthe": 8909,
      "junction": 8910,
      "settled": 8911,
      "Planet": 8912,
      "breathing": 8913,
      "jacket": 8914,
      "Kubernetes": 8915,
      "fleet": 8916,
      "conventional": 8917,
      "strategies": 8918,
      "Munich": 8919,
      "opinion": 8920,
      "Trophy": 8921,
      "Digital": 8922,
      "Ferrari": 8923,
      "Pokémon": 8924,
      "sponsor": 8925,
      "renewable": 8926,
      "Cleveland": 8927,
      "\").": 8928,
      "3D": 8929,
      "Biden": 8930,
      "Care": 8931,
      "Dod": 8932,
      "Equ": 8933,
      "Fund": 8934,
      "Hunt": 8935,
      "Jenn": 8936,
      "Low": 8937,
      "Lev": 8938,
      "Master": 8939,
      "Nu": 8940,
      "Pand": 8941,
      "Pit": 8942,
      "RS": 8943,
      "Raf": 8944,
      "Sug": 8945,
      "dan": 8946,
      "gone": 8947,
      "jac": 8948,
      "lad": 8949,
      "mite": 8950,
      "nie": 8951,
      "oh": 8952,
      "pink": 8953,
      "rical": 8954,
      "wickets": 8955,
      "ym": 8956,
      "reh": 8957,
      "essee": 8958,
      "aco": 8959,
      "deed": 8960,
      "igs": 8961,
      "constitut": 8962,
      "appre": 8963,
      "Instead": 8964,
      "resto": 8965,
      "eman": 8966,
      "shocks": 8967,
      "perhaps": 8968,
      "asts": 8969,
      "cruc": 8970,
      "curve": 8971,
      "observation": 8972,
      "engage": 8973,
      "interview": 8974,
      "delay": 8975,
      "ugby": 8976,
      "Marie": 8977,
      "keyboard": 8978,
      "bias": 8979,
      "wheels": 8980,
      "explos": 8981,
      "cutting": 8982,
      "entering": 8983,
      "towns": 8984,
      "Edin": 8985,
      "panels": 8986,
      "1904": 8987,
      "batteries": 8988,
      "photograph": 8989,
      "Patriots": 8990,
      "Holy": 8991,
      "Current": 8992,
      "bourne": 8993,
      "increasingly": 8994,
      "Falls": 8995,
      "exploration": 8996,
      "Tennessee": 8997,
      "accident": 8998,
      "diale": 8999,
      "flavors": 9000,
      "innings": 9001,
      "trigger": 9002,
      "murder": 9003,
      "substantial": 9004,
      "hemisphere": 9005,
      "helium": 9006,
      "ifferent": 9007,
      "Hungary": 9008,
      "Abdul": 9009,
      "Aur": 9010,
      "Bio": 9011,
      "Bomb": 9012,
      "Cab": 9013,
      "Dur": 9014,
      "Gor": 9015,
      "Matt": 9016,
      "OL": 9017,
      "Pors": 9018,
      "Rena": 9019,
      "São": 9020,
      "Yan": 9021,
      "])": 9022,
      "bay": 9023,
      "gall": 9024,
      "lighter": 9025,
      "mant": 9026,
      "obl": 9027,
      "padd": 9028,
      "pounds": 9029,
      "send": 9030,
      "tie": 9031,
      "tape": 9032,
      "inals": 9033,
      "icop": 9034,
      "icide": 9035,
      "stake": 9036,
      "rod": 9037,
      "roots": 9038,
      "chap": 9039,
      "chip": 9040,
      "channel": 9041,
      "imate": 9042,
      "usual": 9043,
      "complic": 9044,
      "absolute": 9045,
      "opposition": 9046,
      "tried": 9047,
      "estone": 9048,
      "fried": 9049,
      "proxim": 9050,
      "peoples": 9051,
      "ateful": 9052,
      "emissions": 9053,
      "canal": 9054,
      "pover": 9055,
      "Constant": 9056,
      "gran": 9057,
      "loqu": 9058,
      "logo": 9059,
      "avoc": 9060,
      "creational": 9061,
      "cricke": 9062,
      "draft": 9063,
      "ignon": 9064,
      "1800": 9065,
      "taught": 9066,
      "soap": 9067,
      "aux": 9068,
      "polar": 9069,
      "mush": 9070,
      "files": 9071,
      "Clinton": 9072,
      "wines": 9073,
      "Bris": 9074,
      "Plate": 9075,
      "Trad": 9076,
      "stocks": 9077,
      "maritime": 9078,
      "profile": 9079,
      "lasted": 9080,
      "productive": 9081,
      "Santos": 9082,
      "swing": 9083,
      "Andhra": 9084,
      "garlic": 9085,
      "calm": 9086,
      "camping": 9087,
      "collected": 9088,
      "Philip": 9089,
      "optical": 9090,
      "Medal": 9091,
      "complexity": 9092,
      "electronics": 9093,
      "mechanism": 9094,
      "preferences": 9095,
      "quantity": 9096,
      "nesium": 9097,
      "Wooden": 9098,
      "expressed": 9099,
      "Offic": 9100,
      "Upon": 9101,
      "campaigns": 9102,
      "Bangalore": 9103,
      "Nadu": 9104,
      "Silver": 9105,
      "Cuba": 9106,
      "Alternatively": 9107,
      "sculptor": 9108,
      "stimul": 9109,
      "residential": 9110,
      "Bryant": 9111,
      "dataset": 9112,
      "Nigeria": 9113,
      "conversation": 9114,
      "tribes": 9115,
      "Rafael": 9116,
      "74": 9117,
      "Ash": 9118,
      "Aqu": 9119,
      "Athen": 9120,
      "BB": 9121,
      "Bag": 9122,
      "Cra": 9123,
      "Ev": 9124,
      "Fi": 9125,
      "Fro": 9126,
      "Fender": 9127,
      "Gate": 9128,
      "Native": 9129,
      "Pap": 9130,
      "Pep": 9131,
      "Rest": 9132,
      "SE": 9133,
      "Southeast": 9134,
      "Vill": 9135,
      "dar": 9136,
      "lav": 9137,
      "ores": 9138,
      "pm": 9139,
      "rus": 9140,
      "rib": 9141,
      "sle": 9142,
      "tank": 9143,
      "vices": 9144,
      "inspir": 9145,
      "anes": 9146,
      "theories": 9147,
      "encounter": 9148,
      "icit": 9149,
      "acrosse": 9150,
      "ammal": 9151,
      "rope": 9152,
      "charts": 9153,
      "defic": 9154,
      "olia": 9155,
      "conv": 9156,
      "abandon": 9157,
      "apest": 9158,
      "estine": 9159,
      "propos": 9160,
      "1913": 9161,
      "occurring": 9162,
      "exceed": 9163,
      "maker": 9164,
      "iances": 9165,
      "creatures": 9166,
      "Third": 9167,
      "forming": 9168,
      "awa": 9169,
      "knock": 9170,
      "consin": 9171,
      "consoles": 9172,
      "Energy": 9173,
      "choices": 9174,
      "airy": 9175,
      "ologists": 9176,
      "generating": 9177,
      "lifetime": 9178,
      "Prim": 9179,
      "Spider": 9180,
      "factory": 9181,
      "valley": 9182,
      "courts": 9183,
      "agram": 9184,
      "companion": 9185,
      "Barbar": 9186,
      "globally": 9187,
      "Cups": 9188,
      "consume": 9189,
      "initi": 9190,
      "payments": 9191,
      "starred": 9192,
      "Summarize": 9193,
      "participants": 9194,
      "ippi": 9195,
      "troops": 9196,
      "immune": 9197,
      "Small": 9198,
      "Systems": 9199,
      "Egyptian": 9200,
      "Jerry": 9201,
      "judge": 9202,
      "romantic": 9203,
      "circuits": 9204,
      "atoms": 9205,
      "battles": 9206,
      "Jimmy": 9207,
      "Avengers": 9208,
      "mortg": 9209,
      "efficiently": 9210,
      "discipline": 9211,
      "pursue": 9212,
      "1930s": 9213,
      "nitrogen": 9214,
      "Taiwan": 9215,
      "Mesopotamia": 9216,
      "Wisconsin": 9217,
      "husband": 9218,
      "juris": 9219,
      "Assembly": 9220,
      "Kevin": 9221,
      "83": 9222,
      "?\"": 9223,
      "BJ": 9224,
      "BBC": 9225,
      "Cow": 9226,
      "Hus": 9227,
      "Jay": 9228,
      "Ped": 9229,
      "Pun": 9230,
      "Sud": 9231,
      "],": 9232,
      "avers": 9233,
      "binary": 9234,
      "cav": 9235,
      "duration": 9236,
      "lux": 9237,
      "infin": 9238,
      "anas": 9239,
      "aced": 9240,
      "ols": 9241,
      "elig": 9242,
      "neuro": 9243,
      "clin": 9244,
      "emit": 9245,
      "shad": 9246,
      "shots": 9247,
      "quiet": 9248,
      "outdoors": 9249,
      "Contro": 9250,
      "spaces": 9251,
      "prev": 9252,
      "kness": 9253,
      "bub": 9254,
      "locked": 9255,
      "myster": 9256,
      "issance": 9257,
      "issippi": 9258,
      "perior": 9259,
      "popularized": 9260,
      "transmission": 9261,
      "returning": 9262,
      "greatly": 9263,
      "125": 9264,
      "musicians": 9265,
      "Administr": 9266,
      "expedition": 9267,
      "traditions": 9268,
      "1935": 9269,
      "describing": 9270,
      "cups": 9271,
      "appearances": 9272,
      "castle": 9273,
      "storms": 9274,
      "looked": 9275,
      "snowboard": 9276,
      "Sales": 9277,
      "participated": 9278,
      "logical": 9279,
      "concerned": 9280,
      "agonist": 9281,
      "mathematic": 9282,
      "dropped": 9283,
      "Mississippi": 9284,
      "Saturn": 9285,
      "Swedish": 9286,
      "installed": 9287,
      "tallest": 9288,
      "pherd": 9289,
      "drugs": 9290,
      "journalist": 9291,
      "Director": 9292,
      "scholar": 9293,
      "refriger": 9294,
      "corresponding": 9295,
      "cocktail": 9296,
      "granted": 9297,
      "scheduled": 9298,
      "hawks": 9299,
      "Review": 9300,
      "fabric": 9301,
      "simultaneously": 9302,
      "Gordon": 9303,
      "700": 9304,
      "Cit": 9305,
      "Fel": 9306,
      "Lost": 9307,
      "OP": 9308,
      "Yu": 9309,
      "];": 9310,
      "crown": 9311,
      "iac": 9312,
      "kel": 9313,
      "kne": 9314,
      "lish": 9315,
      "mg": 9316,
      "roman": 9317,
      "sample": 9318,
      "tario": 9319,
      "wi": 9320,
      "intr": 9321,
      "eron": 9322,
      "enic": 9323,
      "rept": 9324,
      "recru": 9325,
      "asant": 9326,
      "stig": 9327,
      "depression": 9328,
      "ully": 9329,
      "1923": 9330,
      "aine": 9331,
      "Intelligence": 9332,
      "neck": 9333,
      "quote": 9334,
      "permit": 9335,
      "ongo": 9336,
      "predominant": 9337,
      "Those": 9338,
      "Heat": 9339,
      "Animal": 9340,
      "airline": 9341,
      "airplane": 9342,
      "borrow": 9343,
      "persist": 9344,
      "Marath": 9345,
      "surfing": 9346,
      "passion": 9347,
      "passengers": 9348,
      "variables": 9349,
      "guid": 9350,
      "Ontario": 9351,
      "gery": 9352,
      "warf": 9353,
      "tells": 9354,
      "Mov": 9355,
      "competed": 9356,
      "Box": 9357,
      "sunny": 9358,
      "defending": 9359,
      "managers": 9360,
      "basin": 9361,
      "cognitive": 9362,
      "representation": 9363,
      "bottle": 9364,
      "Design": 9365,
      "1908": 9366,
      "empty": 9367,
      "1887": 9368,
      "improvement": 9369,
      "internationally": 9370,
      "Salt": 9371,
      "crystal": 9372,
      "Region": 9373,
      "Genes": 9374,
      "detailed": 9375,
      "Galaxy": 9376,
      "About": 9377,
      "surrounded": 9378,
      "survival": 9379,
      "progressive": 9380,
      "familiar": 9381,
      "Maine": 9382,
      "Visit": 9383,
      "criticism": 9384,
      "atmospheric": 9385,
      "fiber": 9386,
      "propag": 9387,
      "Half": 9388,
      "suffered": 9389,
      "Venus": 9390,
      "Explor": 9391,
      "Industrial": 9392,
      "puppy": 9393,
      "flexibility": 9394,
      "slavery": 9395,
      "penalty": 9396,
      "diabetes": 9397,
      "authors": 9398,
      "favour": 9399,
      "coordin": 9400,
      "Honda": 9401,
      "Capitol": 9402,
      "Children": 9403,
      "Tunisia": 9404,
      "Himalay": 9405,
      "Edinburgh": 9406,
      "Porsche": 9407,
      "%,": 9408,
      "/;": 9409,
      "CS": 9410,
      "GM": 9411,
      "HBO": 9412,
      "Pul": 9413,
      "Rico": 9414,
      "SD": 9415,
      "Sour": 9416,
      "Sport": 9417,
      "Tam": 9418,
      "Ut": 9419,
      "Won": 9420,
      "Wik": 9421,
      "cot": 9422,
      "diving": 9423,
      "flying": 9424,
      "fighters": 9425,
      "hack": 9426,
      "hence": 9427,
      "hired": 9428,
      "ii": 9429,
      "lings": 9430,
      "nish": 9431,
      "pson": 9432,
      "ras": 9433,
      "sib": 9434,
      "sought": 9435,
      "southeast": 9436,
      "onions": 9437,
      "encompass": 9438,
      "ori": 9439,
      "arc": 9440,
      "toler": 9441,
      "acre": 9442,
      "amer": 9443,
      "deem": 9444,
      "oll": 9445,
      "implic": 9446,
      "imination": 9447,
      "agents": 9448,
      "constitution": 9449,
      "concrete": 9450,
      "mood": 9451,
      "kee": 9452,
      "Indo": 9453,
      "ocation": 9454,
      "shapes": 9455,
      "fees": 9456,
      "compens": 9457,
      "compreh": 9458,
      "0000": 9459,
      "Chand": 9460,
      "Champion": 9461,
      "pho": 9462,
      "contained": 9463,
      "caught": 9464,
      "counts": 9465,
      "ternoon": 9466,
      "orses": 9467,
      "archae": 9468,
      "laid": 9469,
      "Lead": 9470,
      "calling": 9471,
      "brevi": 9472,
      "extend": 9473,
      "extension": 9474,
      "cheaper": 9475,
      "smell": 9476,
      "passive": 9477,
      "variable": 9478,
      "cute": 9479,
      "signs": 9480,
      "Canal": 9481,
      "steep": 9482,
      "hybrid": 9483,
      "governing": 9484,
      "balanced": 9485,
      "contribute": 9486,
      "Peace": 9487,
      "wooden": 9488,
      "Parks": 9489,
      "buried": 9490,
      "Services": 9491,
      "establishing": 9492,
      "Represent": 9493,
      "criteria": 9494,
      "separation": 9495,
      "significance": 9496,
      "painted": 9497,
      "corporations": 9498,
      "reporting": 9499,
      "fortun": 9500,
      "speeds": 9501,
      "environments": 9502,
      "Pokemon": 9503,
      "syndrome": 9504,
      "villages": 9505,
      "negot": 9506,
      "ovic": 9507,
      "casual": 9508,
      "firmed": 9509,
      "broader": 9510,
      "Thompson": 9511,
      "Samuel": 9512,
      "Merced": 9513,
      "neighbour": 9514,
      "determining": 9515,
      "bags": 9516,
      "regulations": 9517,
      "Governor": 9518,
      "Christo": 9519,
      "truly": 9520,
      "translation": 9521,
      "sharp": 9522,
      "premium": 9523,
      "spanning": 9524,
      "Travel": 9525,
      "scholars": 9526,
      "replacement": 9527,
      "Anthony": 9528,
      "iovascular": 9529,
      "noble": 9530,
      "satellite": 9531,
      "Committee": 9532,
      "guidance": 9533,
      "1000": 9534,
      "Abr": 9535,
      "Cos": 9536,
      "IA": 9537,
      "Libr": 9538,
      "Pic": 9539,
      "TP": 9540,
      "Ved": 9541,
      "WA": 9542,
      "ahead": 9543,
      "naval": 9544,
      "sized": 9545,
      "tent": 9546,
      "waters": 9547,
      "intellig": 9548,
      "onic": 9549,
      "theatre": 9550,
      "arn": 9551,
      "itational": 9552,
      "toy": 9553,
      "stability": 9554,
      "stuff": 9555,
      "tet": 9556,
      "vet": 9557,
      "chat": 9558,
      "comic": 9559,
      "comment": 9560,
      "comprom": 9561,
      "eless": 9562,
      "1914": 9563,
      "essay": 9564,
      "ipedia": 9565,
      "ishment": 9566,
      "sphere": 9567,
      "Chenn": 9568,
      "ibilities": 9569,
      "dral": 9570,
      "Unix": 9571,
      "landing": 9572,
      "intensity": 9573,
      "parad": 9574,
      "interact": 9575,
      "ielder": 9576,
      "variant": 9577,
      "standards": 9578,
      "processed": 9579,
      "releg": 9580,
      "purple": 9581,
      "organic": 9582,
      "legacy": 9583,
      "seeking": 9584,
      "governor": 9585,
      "structured": 9586,
      "traded": 9587,
      "hospital": 9588,
      "Steel": 9589,
      "remainder": 9590,
      "defend": 9591,
      "breaks": 9592,
      "planted": 9593,
      "Federation": 9594,
      "attract": 9595,
      "1909": 9596,
      "watched": 9597,
      "responsibility": 9598,
      "shoot": 9599,
      "regardless": 9600,
      "qualities": 9601,
      "drawn": 9602,
      "Buff": 9603,
      "Check": 9604,
      "acquis": 9605,
      "Shah": 9606,
      "Metropolitan": 9607,
      "violence": 9608,
      "smoke": 9609,
      "minimal": 9610,
      "absor": 9611,
      "Mission": 9612,
      "forests": 9613,
      "Bulgar": 9614,
      "Retrie": 9615,
      "Running": 9616,
      "Create": 9617,
      "recipient": 9618,
      "molecular": 9619,
      "Garden": 9620,
      "poetry": 9621,
      "lunar": 9622,
      "Buddhist": 9623,
      "Describe": 9624,
      "Napole": 9625,
      "earthquake": 9626,
      "altitude": 9627,
      "900": 9628,
      "Fred": 9629,
      "Hell": 9630,
      "Kab": 9631,
      "Log": 9632,
      "Psy": 9633,
      "Race": 9634,
      "Targ": 9635,
      "Writ": 9636,
      "Yoga": 9637,
      "caffe": 9638,
      "dys": 9639,
      "drew": 9640,
      "fielder": 9641,
      "iod": 9642,
[...]
